{
  "</s>": 0,
  "<unk>": 1,
  ",": 2,
  ".": 3,
  "\u2581the": 4,
  "\u2581to": 5,
  "s": 6,
  "\u2581of": 7,
  "?": 8,
  "\u2581and": 9,
  "\u2581\u10d3\u10d0": 10,
  "\u10e1": 11,
  "\u2581a": 12,
  "\u2581in": 13,
  "\u10d0": 14,
  "\u2581that": 15,
  "\u2581-": 16,
  "\u2581\u201c": 17,
  "\u10d8": 18,
  ":": 19,
  "\u2581\u201d": 20,
  "\u2581is": 21,
  "\u2581I": 22,
  "\u10d7": 23,
  "\u2581\u10e0\u10dd\u10db": 24,
  "\u2581you": 25,
  "\u2581": 26,
  "\u2581\u201e": 27,
  "\u2581\u2014": 28,
  "\u2019": 29,
  "\u2581for": 30,
  "'": 31,
  "\u2581be": 32,
  "!": 33,
  "\u2581with": 34,
  "\u2581was": 35,
  "\u2581not": 36,
  "\u2581it": 37,
  "\u2581we": 38,
  "\u2581on": 39,
  "\u2581Jehovah": 40,
  "\u2581his": 41,
  "ing": 42,
  "\u2581God": 43,
  "\u2581\u10d0\u10e0": 44,
  "\u2581as": 45,
  "\u2581have": 46,
  "\u2581are": 47,
  "\u2581The": 48,
  "\u2581he": 49,
  "\u10db": 50,
  "t": 51,
  "\u2581will": 52,
  "\u10db\u10d0": 53,
  "\u2581this": 54,
  "\u2581from": 55,
  "\u10e8\u10d8": 56,
  "\u2581\u10d4\u10e1": 57,
  "\u2581by": 58,
  "\u2581\u10d4\u10d0": 59,
  "\u2581can": 60,
  "\u2581[": 61,
  "\u2581\u10d5": 62,
  "ed": 63,
  "\u10d8\u10e1": 64,
  "\u10ea": 65,
  "\u2581\u10d8\u10e1": 66,
  "\u2581(": 67,
  "\u2581or": 68,
  "\u2581they": 69,
  "\u2581their": 70,
  ")": 71,
  "\u2581\u10d7\u10e3": 72,
  "\u2581\u10d0\u10db": 73,
  "\u2581your": 74,
  "\u2581our": 75,
  "\u2581who": 76,
  "\u2581Bible": 77,
  "\u2581do": 78,
  "...": 79,
  "d": 80,
  "\u2581what": 81,
  "\u10d6\u10d4": 82,
  "\u2581us": 83,
  "\u2581What": 84,
  "\u2581Jesus": 85,
  "\u2581at": 86,
  "\u2581all": 87,
  "\u2581\u10e0\u10d0": 88,
  "\u2581one": 89,
  "\u10e5": 90,
  "\u201c": 91,
  "\u2581\u10dc\u10d0": 92,
  "\u10d5": 93,
  "\u2581my": 94,
  "\u2581were": 95,
  "\u2581me": 96,
  "\u10d3": 97,
  "\u10d3\u10d0": 98,
  "\u2581\u10e3\u10dc\u10d3\u10d0": 99,
  "\u2581\u10d8\u10e7\u10dd": 100,
  "\u2581an": 101,
  "\u2581had": 102,
  "\u2581\u10dc\u10d5": 103,
  "\u2581\u10d8\u10d4\u10f0\u10dd\u10d5\u10d0\u10e1": 104,
  "\u2581\u2019": 105,
  ";": 106,
  "\u2581about": 107,
  "\u2581In": 108,
  "m": 109,
  "\u2581him": 110,
  "ly": 111,
  "\u2581them": 112,
  "\u201c.": 113,
  "\u10e0": 114,
  "\u2581\u10d0\u10e0\u10d8\u10e1": 115,
  "\u10d4\u10d1\u10e1": 116,
  "\u2581people": 117,
  "\u2581\u10e6\u10d5\u10d7\u10d8\u10e1": 118,
  "\u2581\u10d0": 119,
  "\u2581A": 120,
  "\u2581has": 121,
  "\u10d4\u10d1\u10d8": 122,
  "\u10ec": 123,
  "-": 124,
  "\u2581\u10d9\u10d8": 125,
  "\u2581would": 126,
  "\u2581\u10db\u10d0\u10d2\u10e0\u10d0\u10db": 127,
  "\u2581\u10df\u10d5": 128,
  "\u2581time": 129,
  "\u2581You": 130,
  "\u2581\u10e0\u10dd\u10d2\u10dd\u10e0": 131,
  "\u2581\u2018": 132,
  "\u2581when": 133,
  "\u2581so": 134,
  "\u2581\u10db\u10d0\u10d7": 135,
  "\u10d2": 136,
  "\u2581but": 137,
  "\u25811": 138,
  "\u2581It": 139,
  "\u2581\u10d7": 140,
  "\u10dd": 141,
  "\u10e1\u10d0": 142,
  "\u2581out": 143,
  "\u2581How": 144,
  "\u2581did": 145,
  "\u10d0\u10d3": 146,
  "\u2581He": 147,
  "\u2581life": 148,
  "\u10d4\u10d1\u10d8\u10e1": 149,
  "\u2581may": 150,
  "\u2581\u10e1\u10d0": 151,
  "a": 152,
  "re": 153,
  "\u2581\u201c.": 154,
  "\u2581up": 155,
  "\u2581\u10d2\u10d0": 156,
  "\u2581more": 157,
  "\u2581her": 158,
  "\u2581some": 159,
  "\u10dc\u10d0": 160,
  "\u2581We": 161,
  "\u2581\u10f1\u10d0": 162,
  "\u10dc": 163,
  "\u2581\u10d2": 164,
  "er": 165,
  "\u2581\u10db\u10d4": 166,
  "\u2581\u10d2\u10d0\u10db\u10dd": 167,
  "\u2581\u10db\u10d0\u10e1": 168,
  "\u2581those": 169,
  "\u2581been": 170,
  "]": 171,
  "\u2581no": 172,
  "\u2581there": 173,
  "\u2581\u10e3": 174,
  "\u2581\u10d8": 175,
  "\u2581\u10e0\u10dd\u10d2\u10dd\u10e0\u10ea": 176,
  "\u2581\u10e0\u10dd\u10db\u10d4\u10da\u10d8\u10ea": 177,
  "\u10e0\u10d0": 178,
  "\u2581\u10db\u10d8\u10e1\u10d8": 179,
  "\u2581\u10e8\u10d4\u10d8\u10eb\u10da\u10d4\u10d1\u10d0": 180,
  "\u2581if": 181,
  "y": 182,
  "\u2581also": 183,
  "\u2581\u10d0\u10e0\u10d0": 184,
  "\u2581how": 185,
  "\u2581good": 186,
  "\u10d7\u10d0": 187,
  "\u2581know": 188,
  "\u2581\u10d0\u10dc": 189,
  "\u10da": 190,
  "\u2581\u10e8\u10d4\u10db\u10d3\u10d4\u10d2": 191,
  "\u2581such": 192,
  "\u2581many": 193,
  "\u2581\u10d8\u10e1\u10d8\u10dc\u10d8": 194,
  "\u2581\u10d8\u10db": 195,
  "\u2581\u10e1": 196,
  "\u2581help": 197,
  "\u10dc\u10d8": 198,
  "e": 199,
  "\u10ee": 200,
  "\u2581\u10df\u10d7": 201,
  "\u2581way": 202,
  "\u2581But": 203,
  "\u10d3\u10d8": 204,
  "\u2581just": 205,
  "\u2581\u10d4\u10e0\u10d7\u10d8": 206,
  "\u2581other": 207,
  "\u2581\u10e0\u10d0\u10ea": 208,
  "\u2581like": 209,
  "\u2581than": 210,
  "\u2581could": 211,
  "\u2581And": 212,
  "\u2581man": 213,
  "\u2581should": 214,
  "\u2581This": 215,
  "\u2581love": 216,
  "\u2581Witnesses": 217,
  "c": 218,
  "al": 219,
  "\u2581\u10ec\u10da\u10d8\u10e1": 220,
  "\u10d4\u10d1\u10d0": 221,
  "\u2581said": 222,
  "\u2581into": 223,
  "\u2581\u10d4": 224,
  "\u2581work": 225,
  "\u2581even": 226,
  "\u2581she": 227,
  "\u2581page": 228,
  "\u2581make": 229,
  "\u2581\u10e3\u10e4\u10e0\u10dd": 230,
  "\u2581things": 231,
  "\u2581\u10d8\u10d4\u10f0\u10dd\u10d5\u10d0": 232,
  "\u2581these": 233,
  "\u2581which": 234,
  "\u2581\u10d4\u10e0\u10d7": 235,
  "\u10da\u10d0": 236,
  "\u2581world": 237,
  "\u00a3": 238,
  "\u10e3": 239,
  "\u10d4": 240,
  "\u2581does": 241,
  "\u2581over": 242,
  "\u2581\u10e0\u10d0\u10e2\u10dd\u10db": 243,
  "\u2581years": 244,
  "\u2581\u10df": 245,
  "in": 246,
  "\u2581They": 247,
  "\u2581day": 248,
  "\u2581\u10db\u10d7": 249,
  "\u25812": 250,
  "\u2581\u10db\u10d0\u10dc": 251,
  "\u2581\u10d7\u10d0\u10d5\u10d8\u10e1": 252,
  "\u2581For": 253,
  "\u2581\u10e0\u10dd\u10ea\u10d0": 254,
  "n": 255,
  "\u2581Why": 256,
  "\u2581\u10d3\u10e0\u10dd\u10e1": 257,
  "\u2581Paul": 258,
  "\u2581When": 259,
  "\u2581\u10db\u10dd": 260,
  "\u2581need": 261,
  "\u2581first": 262,
  "\u2581see": 263,
  "\u2581\u10e0\u10d7": 264,
  "r": 265,
  "\u10eb": 266,
  "\u2581\u10e9\u10d5\u10d4\u10dc": 267,
  "\u2581\u10da\u10d7": 268,
  "\u10d9\u10d0": 269,
  "\u2581\u10dd\u10f2": 270,
  "\u10d8\u10d7": 271,
  "\u2581So": 272,
  "\u10e3\u10da\u10d8": 273,
  "\u2581C": 274,
  "\u2581\u10e6\u10d5": 275,
  "\u2581\u10e8\u10d4\u10e1\u10d0\u10ee\u10d4\u10d1": 276,
  "\u2581\u10db\u10d8\u10e1": 277,
  "\u10d4\u10d7": 278,
  "\u2581\u10d3\u10f2": 279,
  "\u2581If": 280,
  "\u2581\u10ec": 281,
  "\u2581only": 282,
  "\u2581\u10e1\u10ee\u10d5\u10d0": 283,
  "I": 284,
  "\u2581right": 285,
  "\u10d0\u10ea": 286,
  "\u2581says": 287,
  "E": 288,
  "\u2581That": 289,
  "\u10d1": 290,
  "\u2581because": 291,
  "\u2581Christian": 292,
  "\u2581\u10db\u10d8": 293,
  "\u2581\u10d8\u10d4\u10e1\u10dd": 294,
  "\u10de": 295,
  "\u2581get": 296,
  "\u2581\u10d8\u10d4\u10e1\u10dd\u10e1": 297,
  "\u2581earth": 298,
  "\u10d0\u10e1": 299,
  "\u2581\u10f2\u10e0": 300,
  "\u10dd\u10d7": 301,
  "\u2581children": 302,
  "\u2581then": 303,
  "\u2581\u10db": 304,
  "the": 305,
  "\u2581\u10d2\u10d5\u10d4\u10e0\u10d3\u10d6": 306,
  "\u2581made": 307,
  "\u2581\u10e0\u10dd\u10d3\u10d4\u10e1\u10d0\u10ea": 308,
  "\u2581now": 309,
  "\u10d2\u10d0": 310,
  "\u10e3\u10e0": 311,
  "\u2581As": 312,
  "\u2581others": 313,
  "\u2581family": 314,
  "\u10d7\u10d0\u10dc": 315,
  "\u2581Christ": 316,
  "\u2581\u10e8\u10d4": 317,
  "\u10d0\u10e0": 318,
  ").": 319,
  "\u2581Christians": 320,
  "\u2581take": 321,
  "\u10d4\u10e1": 322,
  "p": 323,
  "\u10d9": 324,
  "\u2581\u10d3\u10d8\u10d3\u10d8": 325,
  "\u2581\u10e7\u10d5\u10d4\u10da\u10d0": 326,
  "\u10d4\u10dc": 327,
  "\u258115": 328,
  "\u2581\u10db\u10ee\u10dd\u10da\u10dd\u10d3": 329,
  "\u2581\u10e9\u10d5\u10d4\u10dc\u10d8": 330,
  "\u2581being": 331,
  "\u10d5\u10d4": 332,
  "\u2581go": 333,
  "\u2581come": 334,
  "es": 335,
  "\u2581\u10ec\u10d4\u10da\u10e1": 336,
  "\u2581must": 337,
  "\u10df": 338,
  "\u10dd\u10e1": 339,
  "\u2581two": 340,
  "\u10d7\u10d5\u10d8\u10e1": 341,
  "\u2581\u10e4\u10d5": 342,
  "ll": 343,
  "\u2581Kingdom": 344,
  "\u2581b": 345,
  "\u2581its": 346,
  "\u10d5\u10d8": 347,
  "\u10e0\u10d5": 348,
  "\u10e3\u10da": 349,
  "\u2581\u10e6\u10db\u10d4\u10e0\u10d7\u10d8": 350,
  "\u2581well": 351,
  "\u10e0\u10d7": 352,
  "\u2581spirit": 353,
  "\u10d8\u10d0": 354,
  "\u2581No": 355,
  "\u2581example": 356,
  "\u2581\u10d1": 357,
  "\u2581want": 358,
  "\u10e2": 359,
  "\u2581faith": 360,
  "\u2581\u10e0\u10dd\u10db\u10da\u10d4\u10d1\u10d8\u10ea": 361,
  "\u2581\u10e0\u10d0\u10d3\u10d2\u10d0\u10dc": 362,
  "\u2581\u10e0\u10d0\u10e1": 363,
  "\u10dd\u10dc": 364,
  "\u2581\u10d5\u10d4\u10e0": 365,
  "\u2581\u10d7\u10d0\u10d5\u10d8\u10e1\u10d8": 366,
  "or": 367,
  "\u2581\u10d1\u10d8\u10d1\u10da\u10d8\u10d8\u10e1": 368,
  "\u10db\u10d4": 369,
  "S": 370,
  "\u2581B": 371,
  "\u2581\u10d3\u10e6\u10d4\u10e1": 372,
  "\u10d1\u10d0": 373,
  "\u10d3\u10d0\u10dc": 374,
  "\u10d5\u10d0": 375,
  "\u10d6": 376,
  "\u2581_": 377,
  "\u10d3\u10dc\u10d4\u10dc": 378,
  "\u2581/": 379,
  "\u2581before": 380,
  "\u2581times": 381,
  "\u2581\u10d0\u10e1\u10d4\u10d7\u10d8": 382,
  "\u2581%": 383,
  "\u10d2\u10d0\u10dc": 384,
  "\u2581here": 385,
  "\u2581\u10e0\u10f2\u10d2\u10d0": 386,
  "g": 387,
  "\u2581any": 388,
  "\u2581\u10d0\u10e1\u10d4": 389,
  "\u2581after": 390,
  "\u2581own": 391,
  "\u10d5\u10dc": 392,
  "\u10da\u10d7": 393,
  "\u2581new": 394,
  "\u258119": 395,
  "\u2581name": 396,
  "\u2581very": 397,
  "\u10dc\u10d7": 398,
  "\u2581Do": 399,
  "\u10e6": 400,
  "\u2581\u10d1\u10d8\u10d1\u10da\u10d8\u10d0": 401,
  "\u2581heart": 402,
  "\u2581much": 403,
  "\u2581say": 404,
  "\u2581true": 405,
  "\u2581\u10eb\u10d0\u10da\u10d8\u10d0\u10dc": 406,
  "\u2581back": 407,
  "\u2581\u10d2\u10d0\u10d3\u10d0": 408,
  "\u2581\u10e9\u10d0": 409,
  "\u2581s": 410,
  "\u2581spiritual": 411,
  "\u2581don": 412,
  "b": 413,
  "\u2581death": 414,
  "\u25815": 415,
  "\u2581where": 416,
  "\u2581think": 417,
  "\u10d0\u10db": 418,
  "\u2581Picture": 419,
  "\u2581To": 420,
  "\u10e1\u10d7\u10d0\u10dc": 421,
  "\u25813": 422,
  "\u2581give": 423,
  "\u2581congregation": 424,
  "\u2581become": 425,
  "\u2581words": 426,
  "\u258110": 427,
  "\u10db\u10dd": 428,
  "\u2581\u10e9\u10d4\u10db\u10d8": 429,
  "\u2581\u10d8\u10e5\u10dc\u10d4\u10d1\u10d0": 430,
  "\u2581another": 431,
  "\u2581men": 432,
  "\u2581\"": 433,
  "ve": 434,
  "\u2581through": 435,
  "\u201c,": 436,
  "A": 437,
  "\u2581found": 438,
  "\u2581might": 439,
  "\u2581\u10db\u10d0\u10d7\u10d8": 440,
  "\u25817": 441,
  "le": 442,
  "\u2581\u10d0\u10db\u10d8\u10e2\u10dd\u10db": 443,
  "\u10dc\u10f2": 444,
  "\u2581\u10d8\u10db\u10d8\u10e1": 445,
  "\u2581down": 446,
  "\u2581find": 447,
  "\u10e7": 448,
  "th": 449,
  "\u2581ones": 450,
  "\u10dd\u10d1\u10d8\u10e1": 451,
  "\u2581parents": 452,
  "C": 453,
  "\u10dd\u10d1\u10d0": 454,
  "\u10e8": 455,
  "\u10d4\u10d1\u10d8\u10d7": 456,
  "\u2581S": 457,
  "\u10d4\u10d5": 458,
  "\u25814": 459,
  "\u2581\u10e1\u10e3\u10e0\u10d0\u10d7\u10d8": 460,
  "\u2581use": 461,
  "\u2581T": 462,
  "\u2581\u10e6\u10db\u10d4\u10e0\u10d7\u10e1": 463,
  "\u2581Can": 464,
  "\u2581most": 465,
  "\u25818": 466,
  "\u10e4": 467,
  "\u2581never": 468,
  "\u10da\u10dd": 469,
  "\u10f3": 470,
  "\u10d0\u10dc": 471,
  "\u2581person": 472,
  "\u2581great": 473,
  "\u25816": 474,
  "\u258112": 475,
  "\u2581\u10d0\u10db\u10d1\u10dd\u10d1\u10e1": 476,
  "\u2581home": 477,
  "\u2581part": 478,
  "\u258111": 479,
  "o": 480,
  "\u2581\u10d8\u10d4\u10e1\u10dd\u10db": 481,
  "\u2581feel": 482,
  "\u2581\u10e0\u10d5": 483,
  "\u2581One": 484,
  "\u2581\u10d4\u10e0\u10d7\u10d0\u10d3": 485,
  "\u2581let": 486,
  "\u2581\u10d9\u10d0\u10d9\u10d2\u10f2": 487,
  "\u2581same": 488,
  "\u2581\u10d0\u10db\u10d8\u10e1": 489,
  "\u2581today": 490,
  "ic": 491,
  "\u2581too": 492,
  "\u10e0\u10f2": 493,
  "\u2581long": 494,
  "\u10f2": 495,
  "\u2581each": 496,
  "\u2581\u10d2\u10d0\u10dc": 497,
  "\u10da\u10d8": 498,
  "\u2581\u10e8\u10d4\u10d2\u10d5\u10d8\u10eb\u10da\u10d8\u10d0": 499,
  "\u258120": 500,
  "\u10dc\u10d4": 501,
  "\u2581Is": 502,
  "\u2581\u10e8\u10dd\u10e0\u10d8\u10e1": 503,
  "\u2581am": 504,
  "\u2581used": 505,
  "\u2581study": 506,
  "\u25819": 507,
  "\u10d4\u10da\u10d8": 508,
  "\u2581\u10e9\u10d5\u10d4\u10dc\u10e1": 509,
  "\u2581\u10d7\u10d0\u10d5\u10e1": 510,
  "\u2581She": 511,
  "\u2581\u10db\u10d0": 512,
  "an": 513,
  "\u258114": 514,
  "\u2581\u10db\u10d8\u10d4\u10e0": 515,
  "\u2581John": 516,
  "\u2581year": 517,
  "\u2581W": 518,
  "\u10ea\u10d4": 519,
  "\u2581\u10d5\u10d8\u10dc\u10ea": 520,
  "\u2581\u10d0\u10e5\u10d5\u10e1": 521,
  "\u2581why": 522,
  "\u10d4\u10d1\u10e8\u10d8": 523,
  "\u2581\u10d7\u10e5\u10d5\u10d0": 524,
  "\u2581going": 525,
  "\u2581un": 526,
  "\u2581There": 527,
  "\u2581truth": 528,
  "\u2581\u10d0\u10e0\u10ea": 529,
  "\u2581young": 530,
  "\u2581\u10db\u10d5": 531,
  "en": 532,
  "\u2581\u10d0\u10e0\u10d8\u10d0\u10dc": 533,
  "\u2581\u10e8\u10d8": 534,
  "\u10e2\u10d8": 535,
  "\u2581\u10db\u10d7\u10d4\u10da\u10d8": 536,
  "\u10ed": 537,
  "\u2581\u10d0\u10e5": 538,
  "\u2581keep": 539,
  "\u2581book": 540,
  "ation": 541,
  "\u2581*": 542,
  "\u2581place": 543,
  "\u2581Word": 544,
  "ers": 545,
  "\u10d9\u10d5": 546,
  "\u2581\u10d8\u10e1\u10d4": 547,
  "\u10d1\u10d7": 548,
  "\u2581\u10d0\u10e6": 549,
  "\u10d8\u10d3\u10d0\u10dc": 550,
  "\u10e3\u10e0\u10d8": 551,
  "\u2581human": 552,
  "\u2581\u10db\u10d0\u10d2\u10d0\u10da\u10d8\u10d7\u10d0\u10d3": 553,
  "\u2581end": 554,
  "\u10d4\u10d1\u10d6\u10d4": 555,
  "\u10e7\u10dd": 556,
  "\u10d5\u10da": 557,
  "\u2581under": 558,
  "\u2581\u10d3\u10e0\u10dd": 559,
  "\u25813:": 560,
  "\u2581\u10d7\u10f1": 561,
  "\u2581\u10db\u10d4\u10e2\u10d8": 562,
  "\u2581\u10d5\u10d8": 563,
  "\u2581Yes": 564,
  "\u2581\u10dc\u10f2": 565,
  "\u2581\u10d0\u10d3\u10d0\u10db\u10d8\u10d0\u10dc\u10d8": 566,
  "\u258118": 567,
  "\u2581got": 568,
  "\u2581folder": 569,
  "\u2581Some": 570,
  "\u10e1\u10d9\u10d4\u10dc": 571,
  "\u2581\u10e1\u10d8": 572,
  "\u2581against": 573,
  "\u2581read": 574,
  "\u2581However": 575,
  "\u10de\u10d0": 576,
  "\u10d3\u10d4\u10d1\u10d0": 577,
  "x": 578,
  "\u2581something": 579,
  "\u2581put": 580,
  "\u2581doing": 581,
  "\u2581means": 582,
  "\u2581\u10db\u10d8\u10e3\u10ee\u10d4\u10d3\u10d0\u10d5\u10d0\u10d3": 583,
  "\u2581At": 584,
  "\u2581three": 585,
  "\u10e1\u10d7\u10d5\u10d8\u10e1": 586,
  "l": 587,
  "\u2581every": 588,
  "\u2581show": 589,
  "\u2581\u10d8\u10e7\u10dd\u10e1": 590,
  "\u2581still": 591,
  "\u2581himself": 592,
  "5": 593,
  "\u2581\u10e0\u10dd\u10db\u10d4\u10da\u10e1\u10d0\u10ea": 594,
  "\u2581\u10d7\u10d0\u10d5\u10d8": 595,
  "2": 596,
  "\u2581really": 597,
  "\u2581course": 598,
  "\u2581\u10d3": 599,
  "\u10da\u10f2": 600,
  "\u2581away": 601,
  "\u2581called": 602,
  "\u10e9": 603,
  "\u2581\u10d4\u10f2": 604,
  "\u2581came": 605,
  "\u10d1\u10d8": 606,
  "\u2581David": 607,
  "\u2581close": 608,
  "\u10d4\u10d1\u10db\u10d0": 609,
  "\u2581\u10d7\u10e5\u10d5\u10d4\u10dc": 610,
  "\u2581learn": 611,
  "\u2581\u10d9\u10d0\u10e0\u10d2\u10d8": 612,
  "\u2581\u10d0\u10ee\u10d0\u10da\u10d8": 613,
  "\u2581live": 614,
  "\u2581apostle": 615,
  "\u2581little": 616,
  "\u2581c": 617,
  "i": 618,
  "\u2581\u10d9\u10d8\u10d3\u10d4\u10d5": 619,
  "\u2581though": 620,
  "\u2581wrote": 621,
  "\u2581often": 622,
  "\u2581My": 623,
  "\u258116": 624,
  "\u2581worship": 625,
  "\u2581old": 626,
  "\u2581D": 627,
  "\u2581told": 628,
  "\u2581re": 629,
  "\u25812:": 630,
  "\u2581brothers": 631,
  "\u2581\u10d1\u10d4\u10d5\u10e0\u10d8": 632,
  "\u10f1": 633,
  "\u10d0\u10e0\u10d0": 634,
  "\u2581After": 635,
  "\u2581Satan": 636,
  "\u2581\u10d7\u10e3\u10db\u10ea\u10d0": 637,
  "\u2581\u10e0\u10d0\u10db": 638,
  "8": 639,
  "\u2581E": 640,
  "\u10e0\u10dd": 641,
  "\u2581word": 642,
  "\u2581Let": 643,
  "\u2581\u10d8\u10d4\u10f0\u10dd\u10d5\u10d0\u10db": 644,
  "\u2581days": 645,
  "\u10e4\u10d0": 646,
  "\u2581\u10d0\u10ee\u10da\u10d0": 647,
  "on": 648,
  "\u2581important": 649,
  "ur": 650,
  "\u2581mind": 651,
  "\u2581Israel": 652,
  "\u2581hope": 653,
  "\u2581\u10dd\u10e0\u10d8": 654,
  "\u2581\u10ec\u10d8\u10dc\u10d0\u10e1\u10ec\u10d0\u10e0\u10db\u10d4\u10e2\u10e7\u10d5\u10d4\u10da": 655,
  "ness": 656,
  "\u10e2\u10d0": 657,
  "7": 658,
  "\u2581\u10d6\u10dd\u10d2\u10d8": 659,
  "ion": 660,
  "\u2581\u10e0\u10d0\u10d7\u10d0": 661,
  "\u2581\u10e8\u10d4\u10dc\u10d8": 662,
  "\u10d9\u10d8": 663,
  "\u2581All": 664,
  "\u2581look": 665,
  "\u258117": 666,
  "\u2581message": 667,
  "T": 668,
  "1": 669,
  "\u25814:": 670,
  "\u10dc\u10dd": 671,
  "\u2581\u10d0\u10db\u10d8\u10e1\u10d0": 672,
  "\u2581\u10db\u10d8\u10db\u10d0\u10e0\u10d7": 673,
  "\u10e6\u10d0": 674,
  "\u2581\u10e7\u10dd\u10d5\u10d4\u10da\u10d7\u10d5\u10d8\u10e1": 675,
  "\u10d4\u10d1\u10e3\u10da\u10d8": 676,
  "able": 677,
  "\u2581Peter": 678,
  "\u2581became": 679,
  "\u2581\u10e1\u10d0\u10d3\u10d0\u10ea": 680,
  "\u2581wife": 681,
  "\u2581Father": 682,
  "\u258113": 683,
  "ri": 684,
  "\u2581father": 685,
  "\u2581upon": 686,
  "\u2581de": 687,
  "\u10d5\u10e0": 688,
  "\u10d4\u10d1": 689,
  "\u10e0\u10e9": 690,
  "el": 691,
  "\u10d5\u10d8\u10d7": 692,
  "\u10d9\u10f2": 693,
  "\u2581later": 694,
  "\u2581k": 695,
  "6": 696,
  "it": 697,
  "\u2581off": 698,
  "\u2581\u00a3": 699,
  "\u2581view": 700,
  "\u2581\u10d0\u10db\u10d0\u10e1": 701,
  "\u2581\u10db\u10d0\u10e8\u10d8\u10dc": 702,
  "\u10db\u10d5": 703,
  "\u2581\u10db\u10d4\u10dd\u10e0\u10d4": 704,
  "il": 705,
  "/": 706,
  "us": 707,
  "D": 708,
  "\u2581set": 709,
  "\u2581\u10df\u10e7\u10db": 710,
  "\u25811:": 711,
  "\u258130": 712,
  "\u2581number": 713,
  "\u2581always": 714,
  "\u2581during": 715,
  "\u2581\u10d2\u10d7": 716,
  "\u2581without": 717,
  "\u10e0\u10d8": 718,
  "\u2581\u10d1\u10d8\u10d1\u10da\u10d8\u10e3\u10e0\u10d8": 719,
  "\u2581both": 720,
  "\u10e7\u10e0": 721,
  "\u2581among": 722,
  "\u2581\u10d8\u10e7\u10d5\u10dc\u10d4\u10dc": 723,
  "3": 724,
  "\u2581news": 725,
  "\u2581P": 726,
  "The": 727,
  "\u25815:": 728,
  "\u2581\u10e1\u10d8\u10e2\u10e7\u10d5\u10d0": 729,
  "\u2581Then": 730,
  "\u2581\u10d2\u10d0\u10dc\u10db\u10d0\u10d5\u10da\u10dd\u10d1\u10d0\u10e8\u10d8": 731,
  "\u10da\u10d8\u10e1": 732,
  "\u10de\u10d7": 733,
  "\u10d4\u10d1\u10d7": 734,
  "\u2581\u10de\u10d8\u10e0\u10d5\u10d4\u10da\u10d8": 735,
  "\u2581\u10f0\u10e5\u10dd\u10dc\u10d3\u10d0": 736,
  "\u10e0\u10d4": 737,
  "\u10da\u10d5": 738,
  "\u10d3\u10d4\u10e1": 739,
  "\u10d5\u10d8\u10e1": 740,
  "\u2581hand": 741,
  "\u2581house": 742,
  "\u2581\u10d1\u10d8\u10d1\u10da\u10d8\u10d0\u10e8\u10d8": 743,
  "\u2581\u25a1": 744,
  "\u10d4\u10d1\u10d3\u10d0": 745,
  "\u2581On": 746,
  "\u2581\u10d2\u10f2": 747,
  "\u2581By": 748,
  "\u2581began": 749,
  "\u10e7\u10d5\u10d0": 750,
  "\u2581faithful": 751,
  "\u2581\u10ee\u10e8\u10d8\u10e0\u10d0\u10d3": 752,
  "\u2581power": 753,
  "\u2581century": 754,
  "\u258121": 755,
  "\u10f2\u10e0": 756,
  "\u2581\u10d0\u10dc\u10e3": 757,
  "\u2581\u10d9\u10f2": 758,
  "\u10db\u10d8": 759,
  "\u2581\u10d2\u10d0\u10e3": 760,
  "\u2581New": 761,
  "\u10e2\u10dd": 762,
  "\u2581\u10e6\u10db\u10d4\u10e0\u10d7\u10db\u10d0": 763,
  "\u2581Psalm": 764,
  "\u2581left": 765,
  "\u2581\u10d7\u10e5\u10d5\u10d4\u10dc\u10d8": 766,
  "\u10db\u10d8\u10e1": 767,
  "\u2581while": 768,
  "\u25816:": 769,
  "\u10d3\u10d8\u10d7": 770,
  "\u2581living": 771,
  "f": 772,
  "\u2581With": 773,
  "\u2581given": 774,
  "\u10da\u10d4": 775,
  "\u2581ministry": 776,
  "\u2581fact": 777,
  "\u2581order": 778,
  "\u2581knowledge": 779,
  "\u2581able": 780,
  "\u2581\u10df\u10d0": 781,
  "\u2581\u10dd\u10e0": 782,
  "ar": 783,
  "\u2581child": 784,
  "\u2581\u10e5\u10e0\u10d8\u10e1\u10e2\u10d4\u10e1": 785,
  "\u10d4\u10d1\u10e3\u10da": 786,
  "\u2581\u10d2\u10d0\u10e0\u10d3\u10d0": 787,
  "ce": 788,
  "\u2581gave": 789,
  "\u2581\u201c,": 790,
  "\u2581last": 791,
  "\u10d8\u10dc": 792,
  "\u2581Matthew": 793,
  "\u2581again": 794,
  "\u2581\u10de\u10d0\u10d5\u10da\u10d4": 795,
  "\u10d3\u10d4\u10d7": 796,
  "\u2581\u10d2\u10d5": 797,
  "\u2581\u10e1\u10d0\u10db\u10d4\u10e4\u10dd\u10e1": 798,
  "\u2581themselves": 799,
  "\u2581\u10dc\u10d8\u10e8\u10dc\u10d0\u10d5\u10e1": 800,
  "4": 801,
  "\u2581\u10e7\u10d5\u10d4\u10da\u10d0\u10d6\u10d4": 802,
  "\u10db\u10d3\u10d4": 803,
  "\u2581peace": 804,
  "P": 805,
  "\u2581\u2019.": 806,
  "\u10d8\u10da\u10d8": 807,
  "\u2581however": 808,
  "\u10d4\u10d1\u10d4\u10da\u10d8": 809,
  "\u2581His": 810,
  "\u10d4\u10d1\u10d7\u10d0\u10dc": 811,
  "\u2581\u10ec\u10db\u10d8\u10dc\u10d3\u10d0": 812,
  "\u2581Our": 813,
  "\u2581\u10e1\u10e3\u10da\u10d8\u10d4\u10e0\u10d8": 814,
  "\u2581between": 815,
  "\u2581making": 816,
  "\u2581mother": 817,
  "ment": 818,
  "\u2581son": 819,
  "\u2581\u10d5\u10d0\u10e0": 820,
  "\u2581mean": 821,
  "\u2581\u10d8\u10e5": 822,
  "\u2581\u10d0\u10e6\u10d0\u10e0": 823,
  "\u2581took": 824,
  "\u2581\u10dc\u10d7": 825,
  "\u2581\u10e0\u10d8\u10e1": 826,
  "\u2581Even": 827,
  "\"": 828,
  "\u2581thing": 829,
  "\u10d0\u10dc\u10d8": 830,
  "\u2581service": 831,
  "\u2581thought": 832,
  "\u2581Well": 833,
  "\u2581\u10d7\u10d0\u10dc\u10d0\u10ee\u10db\u10d0\u10d3": 834,
  "\u2581\u10dc\u10e3": 835,
  "O": 836,
  "\u2581result": 837,
  "h": 838,
  "ive": 839,
  "\u2581article": 840,
  "\u10d3\u10d4": 841,
  "ity": 842,
  "\u2581\u10d3\u10d0\u10d0\u10ee\u10da\u10dd\u10d4\u10d1\u10d8\u10d7": 843,
  "\u10d5\u10d0\u10da": 844,
  "\u2581Oh": 845,
  "\u2581\u10dc\u10d0\u10db\u10d3\u10d5\u10d8\u10da\u10d0\u10d3": 846,
  "\u258125": 847,
  "\u2581\u10dd\u10de\u10d7": 848,
  "\u10d2\u10d8": 849,
  "st": 850,
  "\u2581marriage": 851,
  "\u2581serve": 852,
  "\u2581full": 853,
  "\u2581\u10d0\u10e0\u10d0\u10db\u10d4\u10d3": 854,
  "\u2581Re": 855,
  "\u2581\u10d2\u10d0\u10d0": 856,
  "\u2581Your": 857,
  "u": 858,
  "\u10ee\u10d0\u10e0": 859,
  "\u2581\u10e9\u10d0\u10dc\u10e1": 860,
  "\u2581\u10d3\u10d8\u10d3": 861,
  "\u2581better": 862,
  "ul": 863,
  "\u10d3\u10d8\u10e1": 864,
  "\u2581preaching": 865,
  "\u10e2\u10d4": 866,
  "\u2581\u10e1\u10d0\u10ee\u10d4\u10da\u10d8": 867,
  "\u10d8\u10da": 868,
  "\u2581asked": 869,
  "\u2581F": 870,
  "\u2581someone": 871,
  "\u2581holy": 872,
  "9": 873,
  "\u2581ways": 874,
  "\u2581together": 875,
  "\u2581water": 876,
  "\u2581\u10e0\u10d0\u10db\u10d3\u10d4\u10dc\u10d8\u10db\u10d4": 877,
  "\u2581\u10d0\u10e1\u10d4\u10d7": 878,
  "\u2581\u10d8\u10db\u10d0\u10e1": 879,
  "less": 880,
  "\u2581\u10e1\u10d8\u10e2\u10e7\u10d5\u10d4\u10d1\u10d8": 881,
  "\u2581O": 882,
  "\u2581believe": 883,
  "\u2581consider": 884,
  "\u2581\u10e8\u10d4\u10dc": 885,
  "ia": 886,
  "\u2581\u10ee\u10d0\u10da\u10ee\u10d8": 887,
  "Name": 888,
  "\u2581\u10db\u10e1": 889,
  "\u2581\u10e1\u10d0\u10ed\u10d8\u10e0\u10dd": 890,
  "\u2581\u10d3\u10d4\u10d3\u10d0\u10db\u10d8\u10ec\u10d0\u10d6\u10d4": 891,
  "\u2581M": 892,
  "\u10dc\u10d5": 893,
  "\u2581\u10d7\u10db\u10d0": 894,
  "\u2581ever": 895,
  "\u2581Yeah": 896,
  "\u2581\u10e9\u10d4\u10db\u10e1": 897,
  "\u2581\u10e3\u10d9\u10d5\u10d4": 898,
  "\u2581Many": 899,
  "\u2581reason": 900,
  "\u2581care": 901,
  "\u2581\u10d0\u10d3\u10d0\u10db\u10d8\u10d0\u10dc\u10d4\u10d1\u10d8": 902,
  "\u10d4\u10d1\u10d4\u10dc": 903,
  "\u2581few": 904,
  "\u2581Be": 905,
  "L": 906,
  "\u2581\u10d2\u10d4": 907,
  "\u2581\u10f2": 908,
  "la": 909,
  "\u10d4\u10da": 910,
  "\u2581done": 911,
  "\u2581King": 912,
  "\u10dd\u10d3\u10d0": 913,
  "\u2581city": 914,
  "\u2581\u10d3\u10d0\u10e3": 915,
  "\u2581\u10f2\u10d4": 916,
  "ter": 917,
  "\u10d3\u10dd": 918,
  "\u2022": 919,
  "\u2581\u10e1\u10d0\u10d9\u10e3\u10d7\u10d0\u10e0": 920,
  "\u2581\u10e1\u10e3\u10da": 921,
  "ate": 922,
  "\u10e2\u10d0\u10dc": 923,
  "\u2581having": 924,
  "ent": 925,
  "\u2581Scriptures": 926,
  "\u2581food": 927,
  "\u2581tell": 928,
  "\u2581\u10d0\u10db\u10dd": 929,
  "\u2581woman": 930,
  "\u2581\u10d9\u10d0\u10e0\u10d2\u10d0\u10d3": 931,
  "\u2581humans": 932,
  "\u2581\u10d9\u10d0": 933,
  "\u2581\u10e1\u10d8\u10e7\u10d5\u10d0\u10e0\u10e3\u10da\u10d8": 934,
  "\u10d6\u10d0": 935,
  "\u2581\u10e8\u10d4\u10e3\u10eb\u10da\u10d8\u10d0": 936,
  "gm": 937,
  "\u2581Who": 938,
  "\u2581religious": 939,
  "ro": 940,
  "\u2581open": 941,
  "\u2581\u10e0\u10de\u10ec\u10d1\u10d2\u10d0": 942,
  "\u258122": 943,
  "\u2581\u10db\u10d4\u10e4\u10d4": 944,
  "\u2581\u10d2\u10d0\u10d8": 945,
  "\u2581\u10dc\u10ec\u10db\u10d0": 946,
  "\u2581purpose": 947,
  "\u2581\u10e1\u10d0\u10d9\u10e3\u10d7\u10d0\u10e0\u10d8": 948,
  "\u2581\u10e5": 949,
  "\u2581\u10db\u10f2\u10d6\u10d5": 950,
  "\u2581\u10ee\u10d0\u10da\u10ee\u10e1": 951,
  "\u2581Yet": 952,
  "\u2581best": 953,
  "\u2581\u10e1\u10d0\u10db": 954,
  "\u2581\u10ef\u10d4\u10e0": 955,
  "\u2581Not": 956,
  "\u2581understand": 957,
  "to": 958,
  "\u2581\u10d0\u10f1": 959,
  "\u2581free": 960,
  "\u2581\u10d5\u10d8\u10dc": 961,
  "\u2581Now": 962,
  "\u2581disciples": 963,
  "\u2581Are": 964,
  "\u2581From": 965,
  "\u2581\u10d4\u10f2\u10d1\u10de\u10d5": 966,
  "\u2581talk": 967,
  "\u10d0\u10d5\u10e1": 968,
  "\u2581\u10db\u10e0\u10d0\u10d5\u10d0\u10da\u10d8": 969,
  "\u2581personal": 970,
  "\u2581whom": 971,
  "\u2581questions": 972,
  "\u2581Read": 973,
  "\u2581\u10db\u10d8\u10d6\u10d4\u10d6\u10d8": 974,
  "ra": 975,
  "\u2581\u10e1\u10d0\u10db\u10d4\u10e4\u10dd": 976,
  "\u2581around": 977,
  "\u10d9\u10e0": 978,
  "\u2581loving": 979,
  "\u2581friends": 980,
  "\u2581sure": 981,
  "\u10ec\u10e0": 982,
  "\u2581\u10d3\u10d0\u10d4": 983,
  "\u10dd\u10d1\u10d8\u10d7": 984,
  "\u2581face": 985,
  "\u2581\u10e3\u10d7\u10ee\u10e0\u10d0": 986,
  "\u2581future": 987,
  "\u2581\u10d0\u10d2\u10e0\u10d4\u10d7\u10d5\u10d4": 988,
  "\u2581blood": 989,
  "\u2581husband": 990,
  "\u10d4\u10d0": 991,
  "\u2581different": 992,
  "\u2581These": 993,
  "\u2581\u10d3\u10d0\u10d9\u10d0\u10d5\u10e8\u10d8\u10e0\u10d4\u10d1\u10d8\u10d7": 994,
  "\u2581\u10e8\u10d4\u10db\u10d7\u10ee\u10d5\u10d4\u10d5\u10d0\u10e8\u10d8": 995,
  "\u2581bring": 996,
  "\u2581mankind": 997,
  "\u2581\u10d6\u10d4": 998,
  "\u2581\u10e8": 999,
  "\u2581yourself": 1000,
  "\u2581brother": 1001,
  "\u2581hard": 1002,
  "\u2581bad": 1003,
  "\u10d4\u10e0\u10d8": 1004,
  "\u2581fellow": 1005,
  "\u10ef\u10d4\u10e0": 1006,
  "\u2581money": 1007,
  "\u2581school": 1008,
  "\u2581\u10d8\u10d2\u10d8": 1009,
  "\u2581\u10dc\u10d0\u10d7\u10e5\u10d5\u10d0\u10db\u10d8\u10d0": 1010,
  "\u10e8\u10d4": 1011,
  "\u2581joy": 1012,
  "\u2581\u2022": 1013,
  "\u10d7\u10e0\u10d5": 1014,
  "\u2581\u10d0\u10e0\u10e1\u10d4\u10d1\u10dd\u10d1\u10e1": 1015,
  "\u2581matter": 1016,
  "ch": 1017,
  "\u10e4\u10d5": 1018,
  "\u2581night": 1019,
  "\u2581sin": 1020,
  "\u2581\u10d0\u10d9\u10f2": 1021,
  "li": 1022,
  "\u2581\u10db\u10e1\u10d2\u10d0\u10d5\u10e1\u10d0\u10d3": 1023,
  "\u2581\u10d1\u10d7": 1024,
  "\u2581\u10e8\u10d4\u10d2\u10d8\u10eb\u10da\u10d8\u10d0\u10d7": 1025,
  "\u2581servants": 1026,
  "\u2581known": 1027,
  "\u2581learned": 1028,
  "\u10ee\u10d0": 1029,
  "ry": 1030,
  "\u2581toward": 1031,
  "\u2581light": 1032,
  "\u2581\u10d3\u10e6\u10d4": 1033,
  "\u2581kind": 1034,
  "\u2581\u10de\u10d8\u10e0\u10d5\u10d4\u10da": 1035,
  "\u2581wrong": 1036,
  "w": 1037,
  "\u10d0\u10e8\u10d8": 1038,
  "\u10d9\u10da": 1039,
  "\u2581ask": 1040,
  "\u2581next": 1041,
  "\u2581\u10e7\u10d5\u10d4\u10da\u10d0\u10e4\u10d4\u10e0\u10d8": 1042,
  "\u2581\u10db\u10dd\u10d8": 1043,
  "\u10d5\u10d0\u10e0": 1044,
  "as": 1045,
  "\u2581Son": 1046,
  "\u2581lives": 1047,
  "\u2581\u10df\u10d0\u10db\u10f2": 1048,
  "\u2581\u10e5\u10e0\u10f2": 1049,
  "\u2581Jerusalem": 1050,
  "\u10d9\u10d4": 1051,
  "\u2581system": 1052,
  "is": 1053,
  "\u2581Because": 1054,
  "\u2581Isaiah": 1055,
  "\u2581\u10d3\u10d0\u10db": 1056,
  "\u2581happy": 1057,
  "\u2581problems": 1058,
  "\u2581\u10d0\u10d3\u10d0\u10db\u10d8\u10d0\u10dc\u10d4\u10d1\u10e1": 1059,
  "\u10d5\u10e1": 1060,
  "\u2581experience": 1061,
  "\u10e4\u10d7": 1062,
  "\u2581eyes": 1063,
  "\u2581\u10e3\u10e0\u10d7\u10d8\u10d4\u10e0\u10d7\u10dd\u10d1\u10d0": 1064,
  "\u10de\u10d5": 1065,
  "\u2581\u10db\u10d0\u10db\u10d0": 1066,
  "\u10df\u10e0": 1067,
  "\u2581since": 1068,
  "\u2581following": 1069,
  "\u10e2\u10e7": 1070,
  "\u2581felt": 1071,
  "\u2581dead": 1072,
  "\u2581Could": 1073,
  "\u2581fine": 1074,
  "\u2581\u10ea\u10ee\u10dd\u10d5\u10e0\u10d4\u10d1\u10d8\u10e1": 1075,
  "\u2581\u10ea\u10ee\u10dd\u10d5\u10e0\u10d4\u10d1\u10d0": 1076,
  "\u2581\u10ec\u10d8\u10dc": 1077,
  "\u2581possible": 1078,
  "\u2581went": 1079,
  "\u2581\u10e0\u10d0\u10e1\u10d0\u10ea": 1080,
  "\u2581near": 1081,
  "\u2581cannot": 1082,
  "\u10ef": 1083,
  "\u2581saying": 1084,
  "\u2581\u10db\u10d0\u10d2\u10d0\u10da\u10d8\u10d7\u10d8": 1085,
  "\u2581point": 1086,
  "un": 1087,
  "\u2581\u10ec\u10d0": 1088,
  "\u2581\u10e1\u10ec\u10dd\u10e0\u10d4\u10d3": 1089,
  "\u2581present": 1090,
  "\u2581far": 1091,
  "\u2581\u10e0\u10ec\u10db\u10d4\u10dc\u10d0": 1092,
  "\u10ee\u10dd": 1093,
  "ma": 1094,
  "\u2581\u10d9\u10e0\u10d4\u10d1\u10d8\u10e1": 1095,
  "\u10d2\u10dd": 1096,
  "est": 1097,
  "\u2581helped": 1098,
  "\u2581\u10dd\u10ef\u10d0\u10ee\u10d8\u10e1": 1099,
  "\u2581needed": 1100,
  "\u25811,": 1101,
  "\u2581\u10d2\u10d0\u10dc\u10d0": 1102,
  "\u2581\u10d8\u10e1\u10d4\u10d7\u10d8": 1103,
  "\u10d8\u10e0": 1104,
  "\u10ee\u10d8": 1105,
  "\u10dd\u10e0": 1106,
  "\u2581answer": 1107,
  "\u10dd\u10d3": 1108,
  "\u258124": 1109,
  "M": 1110,
  "\u10e1\u10d0\u10ea": 1111,
  "\u10d4\u10e0": 1112,
  "\u2581\u10d8\u10db\u10d0\u10d6\u10d4": 1113,
  "\u2581support": 1114,
  "\u2581body": 1115,
  "\u2581\u10db\u10dd\u10ec\u10db\u10d4\u10d4\u10d1\u10d8": 1116,
  "\u2581\u10dd\u10de\u10d5": 1117,
  "\u2581four": 1118,
  "\u10e8\u10dd": 1119,
  "na": 1120,
  "\u258140": 1121,
  "\u2581\u10e1\u10ee\u10d5\u10d0\u10d3\u10d0\u10e1\u10ee\u10d5\u10d0": 1122,
  "\u2581law": 1123,
  "\u2581\u10e0\u10d4": 1124,
  "\u2581respect": 1125,
  "\u10e3\u10d7": 1126,
  "\u2581saw": 1127,
  "\u2581\u10d8\u10e5\u10dc\u10d4\u10d1\u10dd\u10d3\u10d0": 1128,
  "\u2581\u10d0\u10d3\u10d0\u10db\u10d8\u10d0\u10dc\u10d8\u10e1": 1129,
  "\u2581\u10e8\u10d4\u10e1\u10d0\u10eb\u10da\u10dd\u10d0": 1130,
  "\u2581\u10ee\u10d3\u10d4\u10d1\u10d0": 1131,
  "\u2581\u10df\u10f2": 1132,
  "\u10d4\u10d1\u10da\u10d0\u10d3": 1133,
  "\u2581women": 1134,
  "de": 1135,
  "\u2581prayer": 1136,
  "\u10d7\u10e5": 1137,
  "\u2581fear": 1138,
  "\u10d8\u10db": 1139,
  "\u2581king": 1140,
  "\u2581question": 1141,
  "\u2581\u10d5\u10d8\u10d3\u10e0\u10d4": 1142,
  "\u2581real": 1143,
  "\u2581meetings": 1144,
  "\u10d4\u10d1\u10dd\u10d3\u10d0": 1145,
  "\u2581\u10e9\u10d0\u10db\u10dd": 1146,
  "\u2581\u10db\u10dc\u10d8\u10e8\u10d5\u10dc\u10d4\u10da\u10dd\u10d5\u10d0\u10dc\u10d8": 1147,
  "\u2581\u10e0\u10d0\u10d9\u10d0": 1148,
  "k": 1149,
  "\u2581\u10d2\u10d5\u10d0": 1150,
  "\u2581wanted": 1151,
  "\u2581Proverbs": 1152,
  "\u2581share": 1153,
  "\u2581\u10d2\u10d0\u10ee\u10d3\u10d0": 1154,
  "\u2581\u10e5\u10e0\u10d8\u10e1\u10e2\u10d8\u10d0\u10dc\u10d4\u10d1\u10d8": 1155,
  "\u2581\u10d1\u10d5\u10e5\u10d5": 1156,
  "\u2581G": 1157,
  "\u2581\u10e1\u10d0\u10db\u10d8": 1158,
  "\u10dd\u10d1\u10d0\u10e1": 1159,
  "\u2581war": 1160,
  "\u2581land": 1161,
  "ne": 1162,
  "\u258123": 1163,
  "\u10e5\u10d0": 1164,
  "\u2581yet": 1165,
  "\u2581\u10d2\u10d5\u10d0\u10e5\u10d5\u10e1": 1166,
  "\u2581Moses": 1167,
  "\u2581whole": 1168,
  "\u2581\u10de\u10d0\u10e2\u10d0\u10e0\u10d0": 1169,
  "\u2581language": 1170,
  "ol": 1171,
  "\u2581\u10d7\u10e5\u10db\u10d0": 1172,
  "\u2581relationship": 1173,
  "man": 1174,
  "\u2581high": 1175,
  "tion": 1176,
  "\u10d1\u10e1": 1177,
  "\u10d1\u10d4": 1178,
  "\u2581g": 1179,
  "\u2581nothing": 1180,
  "\u10e6\u10d5": 1181,
  "\u2581wisdom": 1182,
  "\u2581sense": 1183,
  "te": 1184,
  "hose": 1185,
  "\u10e4\u10d8": 1186,
  "\u2581counsel": 1187,
  "\u2581Of": 1188,
  "\u2581\u10d0\u10d3\u10d0\u10db\u10d8\u10d0\u10dc\u10e1": 1189,
  "\u2581\u10d2\u10d5\u10d8": 1190,
  "\u2581until": 1191,
  "\u2581\u10d0\u10ee": 1192,
  "\u2581case": 1193,
  "\u2581\u10db\u10d7\u10d4\u10da": 1194,
  "\u10f1\u10d0": 1195,
  "\u2581age": 1196,
  "\u2581See": 1197,
  "\u2581enjoy": 1198,
  "et": 1199,
  "\u2581K": 1200,
  "\u2581heaven": 1201,
  "\u2581\u10ea": 1202,
  "\u2581\u10d5\u10d4": 1203,
  "\u2581call": 1204,
  "\u2581\u10dd\u10de\u10f2": 1205,
  "\u2581\u10e0\u10e1\u10d9": 1206,
  "\u2581\u10e8\u10d4\u10d3\u10d4\u10d2\u10d0\u10d3": 1207,
  "at": 1208,
  "\u2581\u10d0\u10db\u10d2\u10d5\u10d0\u10e0\u10d0\u10d3": 1209,
  "\u10d1\u10da": 1210,
  "\u2581\u10ee\u10dd\u10db": 1211,
  "ous": 1212,
  "\u2581World": 1213,
  "\u2581\u10e8\u10d4\u10d8": 1214,
  "\u2581information": 1215,
  "\u10e5\u10d5": 1216,
  "ir": 1217,
  "\u10dc\u10d8\u10e1": 1218,
  "\u2581\u10d8\u10db\u10d4\u10d3\u10d8": 1219,
  "\u2581early": 1220,
  "\u2581\u10d3\u10d7": 1221,
  "\u2581\u10e0\u10f2\u10d0": 1222,
  "\u2581\u10de\u10d0\u10f1": 1223,
  "\u2581Organiser": 1224,
  "\u2581change": 1225,
  "\u10d0\u10ee": 1226,
  "\u2581avoid": 1227,
  "vi": 1228,
  "age": 1229,
  "\u2581wicked": 1230,
  "\u2581\u10db\u10e1\u10d0\u10ee\u10e3\u10e0\u10d4\u10d1\u10d0": 1231,
  "\u2581000": 1232,
  "\u2581\u2013": 1233,
  "\u2581Greek": 1234,
  "\u2581\u10db\u10d0\u10da\u10d4": 1235,
  "\u10d4\u10d1\u10d0\u10e1": 1236,
  "\u2581knew": 1237,
  "\u2581self": 1238,
  "\u10d8\u10d0\u10dc": 1239,
  "\u2581along": 1240,
  "\u2581ancient": 1241,
  "Other": 1242,
  "\u10d3\u10d4\u10d1\u10dd\u10d3\u10d0": 1243,
  "\u10db\u10d7": 1244,
  "\u10e1\u10d2\u10d0\u10dc": 1245,
  "\u2581teaching": 1246,
  "\u2581...": 1247,
  "\u2581\u10db\u10d0\u10e0\u10d7\u10da\u10d0\u10ea": 1248,
  "\u2581account": 1249,
  "\u2581small": 1250,
  "\u2581\u10d5\u10d0\u10e0\u10d7": 1251,
  "\u2581certain": 1252,
  "\u2581\u10d3\u10d8\u10d0\u10ee": 1253,
  "\u10d9\u10dd": 1254,
  "\u2581\u10db\u10dd\u10ec\u10db\u10d4": 1255,
  "\u2581\u10e1\u10d0\u10ee\u10da\u10e8\u10d8": 1256,
  "\u2581\u10db\u10d4\u10e2\u10d0\u10d3": 1257,
  "\u2581An": 1258,
  "\u2581anything": 1259,
  "\u2581states": 1260,
  "\u2581continue": 1261,
  "\u2581\u10ec\u10d8\u10dc\u10d0\u10e8\u10d4": 1262,
  "\u2581\u10d1\u10dd\u10da\u10dd": 1263,
  "\u2581\u10e0\u10f2": 1264,
  "%": 1265,
  "\u2581\u00ab": 1266,
  "\u2581special": 1267,
  "\u2581f": 1268,
  "B": 1269,
  "\u10dd\u10d5": 1270,
  "\u2581d": 1271,
  "\u10e0\u10d4\u10d1\u10d0": 1272,
  "\u2581follow": 1273,
  "\u2581Luke": 1274,
  "\u2581cause": 1275,
  "\u10d2\u10d7": 1276,
  "\u2581Israelites": 1277,
  "\u2581nor": 1278,
  "\u10d6\u10d8": 1279,
  "\u2581Timothy": 1280,
  "\u2581died": 1281,
  "\u2581\u10d3\u10d0\u10d8\u10ec\u10e7\u10dd": 1282,
  "\u2581Just": 1283,
  "\u2581speak": 1284,
  "\u2581leave": 1285,
  "\u2581turn": 1286,
  "\u2581\u10ee\u10d0\u10e0": 1287,
  "R": 1288,
  "\u2581nations": 1289,
  "\u10da\u10d0\u10d3": 1290,
  "\u258127": 1291,
  "\u2581Consider": 1292,
  "\u2581try": 1293,
  "ian": 1294,
  "\u2581\u10d2\u10e3\u10da\u10d8": 1295,
  "\u10de\u10d8\u10e0": 1296,
  "\u2581situation": 1297,
  "lo": 1298,
  "\u2581\u10db\u10e1\u10dd\u10e4\u10da\u10d8\u10dd": 1299,
  "\u2581L": 1300,
  "\u2581makes": 1301,
  "\u2581\u10ec\u10d8\u10d2\u10dc\u10d8": 1302,
  "\u2581Does": 1303,
  "\u2581\u10da\u10d0": 1304,
  "\u2581\u10e1\u10d0\u10e5\u10db\u10d4": 1305,
  "v": 1306,
  "\u2581soon": 1307,
  "\u258126": 1308,
  "\u2581J": 1309,
  "\u2581elders": 1310,
  "\u2581\u10d7\u10e5\u10d5\u10d4\u10dc\u10e1": 1311,
  "\u258112:": 1312,
  "\u10db\u10e1": 1313,
  "\u2581brought": 1314,
  "\u2581\u10d2\u10d5\u10d4\u10e0\u10d3\u10d8": 1315,
  "\u2581heavenly": 1316,
  "\u10d9\u10d7": 1317,
  "\u258150": 1318,
  "\u2581reading": 1319,
  "\u2581thinking": 1320,
  "\u10e0\u10d8\u10e1": 1321,
  "\u2581Did": 1322,
  "\u2581needs": 1323,
  "\u2581\u10e1\u10d8\u10ea\u10dd\u10ea\u10ee\u10da\u10d4": 1324,
  "\u10dc\u10d4\u10d1\u10d0": 1325,
  "\u10d0\u10d2": 1326,
  "\u2581Lord": 1327,
  "\u2581seen": 1328,
  "\u2581\u10e1\u10e3\u10da\u10d8": 1329,
  "\u10e7\u10d4": 1330,
  "\u2581\u10db\u10d0\u10d8\u10dc\u10ea": 1331,
  "\u2581\u10d8\u10db\u10d8\u10e1\u10d0": 1332,
  "\u10da\u10e1": 1333,
  "\u2581\u10d0\u10ee\u10d0\u10da": 1334,
  "\u2581attention": 1335,
  "0": 1336,
  "\u2581members": 1337,
  "\u2581\u10d8\u10ee\u10d8\u10da\u10d4\u10d7": 1338,
  "\u2581Although": 1339,
  "\u2581health": 1340,
  "\u2581\u10d1\u10d8\u10d1\u10da\u10d8\u10e3\u10e0": 1341,
  "\u2581feelings": 1342,
  "\u2581ourselves": 1343,
  "\u2581anointed": 1344,
  "\u2581\u10e1\u10e3\u10da\u10d8\u10d4\u10e0": 1345,
  "\u2581hear": 1346,
  "\u2581especially": 1347,
  "\u2581please": 1348,
  "\u2581\u201d?": 1349,
  "\u10de\u10f2": 1350,
  "\u2581including": 1351,
  "\u2581\u10e5\u10e0\u10d8\u10e1\u10e2\u10d8\u10d0\u10dc\u10d8": 1352,
  "im": 1353,
  "\u10d8\u10e1\u10d7\u10d5\u10d8\u10e1": 1354,
  "\u258129": 1355,
  "\u2581Thus": 1356,
  "\u2581x": 1357,
  "\u10d2\u10d5": 1358,
  "\u2581wise": 1359,
  "\u2581giving": 1360,
  "\u2581righteous": 1361,
  "\u2581gonna": 1362,
  "\u10d0\u10db\u10d3\u10d4": 1363,
  "\u2581\u10de\u10d0\u10d5\u10da\u10d4\u10db": 1364,
  "\u2581didn": 1365,
  "\u2581desire": 1366,
  "\u2581\u10e8\u10d4\u10db\u10dd": 1367,
  "\u2581Corinthians": 1368,
  "\u2581five": 1369,
  "\u10ee\u10d5\u10d4": 1370,
  "H": 1371,
  "\u10ea\u10d0": 1372,
  "\u2581conduct": 1373,
  "\u2581\u10e0\u10dd\u10d2\u10dd\u10e0\u10d8": 1374,
  "\u2581temporary": 1375,
  "\u2581second": 1376,
  "\u2581\u10d1\u10dd\u10da\u10dd\u10e1": 1377,
  "ine": 1378,
  "\u2581Abraham": 1379,
  "\u2581United": 1380,
  "\u258131": 1381,
  "\u2581difficult": 1382,
  "\u10e7\u10d5": 1383,
  "\u10d5\u10d3\u10d0": 1384,
  "\u2581\u10db\u10e1\u10dd\u10e4\u10da\u10d8\u10dd\u10e8\u10d8": 1385,
  "\u2581\u10ed\u10d4\u10e8\u10db\u10d0\u10e0\u10d8\u10e2\u10d8": 1386,
  "\u2581problem": 1387,
  "\u2581receive": 1388,
  "\u10d4\u10d1\u10d8\u10dc\u10d0": 1389,
  "ful": 1390,
  "\u2581received": 1391,
  "ting": 1392,
  "\u2581Creator": 1393,
  "\u2581\u10e1\u10d8\u10ea\u10dd\u10ea\u10ee\u10da\u10d8\u10e1": 1394,
  "\u2581religion": 1395,
  "\u2581friend": 1396,
  "\u10d4\u10d1\u10d8\u10d0\u10dc": 1397,
  "\u2581heard": 1398,
  "\u2581\u10d2\u10d0\u10db": 1399,
  "\u2581benefit": 1400,
  "\u2581hearts": 1401,
  "\u2581once": 1402,
  "\u2581\u10e8\u10d4\u10e1\u10ec\u10d0\u10d5\u10da\u10d0": 1403,
  "\u2581\u10eb\u10db\u10d0": 1404,
  "\u2581\u10d8\u10dc": 1405,
  "\u10d4\u10d1\u10d0\u10d3": 1406,
  "z": 1407,
  "\u2581Job": 1408,
  "\u2581move": 1409,
  "\u2581Since": 1410,
  "ge": 1411,
  "\u2581moved": 1412,
  "\u2581\u10d5\u10d8\u10e1\u10d0\u10ea": 1413,
  "\u2581trust": 1414,
  "\u2581group": 1415,
  "\u2581married": 1416,
  "\u2581likely": 1417,
  "\u10d9\u10d4\u10dc": 1418,
  "\u2581provide": 1419,
  "\u2581Come": 1420,
  "\u10d0\u10e0\u10d8": 1421,
  "\u2581H": 1422,
  "\u2581thus": 1423,
  "\u2581\u10d0\u10d8": 1424,
  "\u2581coming": 1425,
  "\u2581\u10f1\u10dc\u10d0\u10db": 1426,
  "\u2581\u10db\u10dd\u10d2\u10d5\u10d8\u10d0\u10dc\u10d4\u10d1\u10d8\u10d7": 1427,
  "\u2581Footnote": 1428,
  "\u2581\u10d2\u10d0\u10d9\u10d4\u10d7\u10d4\u10d1\u10d0": 1429,
  "\u2581\u10d4\u10e0\u10d7\u10d2\u10e3\u10da\u10d8": 1430,
  "\u2581\u10d4\u10dc\u10d0\u10d6\u10d4": 1431,
  "--": 1432,
  "\u2581ten": 1433,
  "\u2581\u10e1\u10e0\u10e3\u10da\u10d8": 1434,
  "do": 1435,
  "\u2581\u10d0\u10e5\u10d5\u10d7": 1436,
  "ted": 1437,
  "\u2581\u10e8\u10d4\u10d4": 1438,
  "\u2581form": 1439,
  "\u2581\u10d7\u10d0\u10d5\u10d8\u10d0\u10dc\u10d7\u10d8": 1440,
  "id": 1441,
  "\u2581control": 1442,
  "\u2581lead": 1443,
  "\u2581value": 1444,
  "\u2581\u10d9\u10d0\u10ea\u10d8": 1445,
  "ci": 1446,
  "\u2581clear": 1447,
  "\u2581\u10d0\u10ee\u10d0\u10da\u10d2\u10d0\u10d6\u10e0\u10d3\u10d0": 1448,
  "\u10e2\u10d8\u10e1": 1449,
  "\u2581taking": 1450,
  "\u2581\u10ee\u10dd\u10da\u10dd": 1451,
  "\u2581\u10db\u10dd\u10d4": 1452,
  "\u2581start": 1453,
  "\u2581\u10d2\u10d5\u10d4": 1454,
  "\u10ee\u10d0\u10d3": 1455,
  "\u2581\u10db\u10f2": 1456,
  "hile": 1457,
  "\u2581\u10db\u10dc\u10f2\u10d3\u10f2": 1458,
  "\u2581sent": 1459,
  "\u2581large": 1460,
  "\u2581\u10e8\u10d4\u10e3": 1461,
  "ck": 1462,
  "\u2581con": 1463,
  "\u2581Where": 1464,
  "\u10ec\u10d0\u10d8\u10d9\u10d8\u10d7\u10ee\u10d4\u10d7": 1465,
  "\u2581\u10de\u10d0\u10d5\u10da\u10d4\u10e1": 1466,
  "\u2581--": 1467,
  "\u2581Law": 1468,
  "\u2581\u10db\u10d4\u10e8\u10d5\u10d4\u10dd\u10d1\u10d8\u10d7": 1469,
  "\u2581temple": 1470,
  "\u258110:": 1471,
  "\u2581Adam": 1472,
  "\u2581Don": 1473,
  "ot": 1474,
  "\u2581\u10d9\u10d0\u10d9": 1475,
  "\u2581\u10e7\u10e3\u10e0\u10d0\u10d3\u10e6\u10d4\u10d1\u10d0": 1476,
  "\u2581act": 1477,
  "\u2581already": 1478,
  "\u10d0\u10e6": 1479,
  "\u2581\u10e0\u10dd\u10db\u10da\u10d8\u10e1": 1480,
  "\u10d0\u10df": 1481,
  "\u2581Acts": 1482,
  "_": 1483,
  "\u10f0": 1484,
  "\u2581\u10d0\u10d3\u10d2\u10d8\u10da\u10d8": 1485,
  "\u2581\u10d4\u10e0\u10d7\u10ee\u10d4\u10da": 1486,
  "\u2581\u10d7\u10d0\u10d5\u10d0\u10d3": 1487,
  "\u2581\u10db\u10dd\u10db": 1488,
  "\u10dc\u10d0\u10e0\u10d0": 1489,
  "\u2581suffering": 1490,
  "ist": 1491,
  "\u2581everything": 1492,
  "\u258132": 1493,
  "\u2581lost": 1494,
  "\u2581\u10e5\u10e0\u10d8\u10e1\u10e2\u10d4": 1495,
  "ling": 1496,
  "\u10d9\u10e3": 1497,
  "\u2581Jews": 1498,
  "\u2581serving": 1499,
  "\u2581Revelation": 1500,
  "\u2581\u10e9\u10d0\u10e0\u10e9\u10dd": 1501,
  "\u2581ago": 1502,
  "\u10d1\u10d8\u10e1": 1503,
  "\u2581\u10d2\u10d0\u10db\u10dd\u10e7\u10d4\u10dc\u10d4\u10d1\u10d0": 1504,
  "\u2581comes": 1505,
  "\u2581principles": 1506,
  "\u2581strong": 1507,
  "\u2581Such": 1508,
  "\u2581\u10e8\u10d4\u10e5\u10db\u10dc\u10d0": 1509,
  "\u2581Watchtower": 1510,
  "\u2581baptized": 1511,
  "\u2581dis": 1512,
  "\u2581\u10dc\u10d0\u10ec\u10d8\u10da\u10d8": 1513,
  "\u2581\u00bb.": 1514,
  "\u2581\u10eb\u10d4": 1515,
  "\u10e8\u10d5": 1516,
  "\u2581THE": 1517,
  "\u2581People": 1518,
  "\u2581remember": 1519,
  "\u258128": 1520,
  "\u10ee\u10db\u10d0": 1521,
  "\u25aa": 1522,
  "\u10dc\u10d3": 1523,
  "\u2581\u10df\u10db\u10d5": 1524,
  "\u2581\u10ec\u10d0\u10e0\u10db\u10dd": 1525,
  "\u2581whether": 1526,
  "\u2581\u10d6\u10dd\u10d2\u10ef\u10d4\u10e0": 1527,
  "up": 1528,
  "\u2581\u10e0\u10d0\u10db\u10d3\u10d4\u10dc\u10d0\u10d3": 1529,
  "\u2581Okay": 1530,
  "\u2581local": 1531,
  "\u2581\u10d0\u10da": 1532,
  "\u2581kingdom": 1533,
  "\u2581\u10eb\u10d0\u10da\u10d0": 1534,
  "\u2581past": 1535,
  "\u2581taken": 1536,
  "\u2581\u10e0\u10d8\u10ea\u10ee\u10d5\u10d8": 1537,
  "\u10de\u10dd": 1538,
  "\u2581similar": 1539,
  "be": 1540,
  "\u10d2\u10f2": 1541,
  "\u2581allow": 1542,
  "\u10e9\u10d5\u10d4\u10dc": 1543,
  "\u10d0\u10d3\u10db\u10d8": 1544,
  "\u10e2\u10d0\u10e0": 1545,
  "\u10da\u10ec": 1546,
  "\u258113:": 1547,
  "\u2581using": 1548,
  "\u2581\u10d0\u10e1\u10d4\u10d5\u10d4": 1549,
  "\u2581perfect": 1550,
  "\u2581\u10d9\u10d0\u10e0\u10f2": 1551,
  "\u2581\u10db\u10e1\u10d2\u10d0\u10d5\u10e1\u10d8": 1552,
  "\u2581\u10e8\u10d4\u10dc\u10e1": 1553,
  "\u2581\u10d0\u10da\u10d1\u10d0\u10d7": 1554,
  "ant": 1555,
  "\u2581taught": 1556,
  "U": 1557,
  "\u2581Would": 1558,
  "\u2581U": 1559,
  "\u2581works": 1560,
  "\u10d5\u10d4\u10dc": 1561,
  "\u2581\u10d9\u10d8\u10d7\u10ee\u10d5\u10d0": 1562,
  "\u2581\u10e1\u10d8\u10d9\u10d5\u10d3\u10d8\u10da\u10d8\u10e1": 1563,
  "\u2581\u10d0\u10d3\u10d0\u10db\u10d8\u10d0\u10dc\u10d7\u10d0": 1564,
  "\u2581country": 1565,
  "\u2581rest": 1566,
  "rs": 1567,
  "\u10e7\u10da": 1568,
  "\u2581\u10e7\u10d5\u10d4\u10da\u10d0\u10e1": 1569,
  "\u25817:": 1570,
  "\u2581\u10e5\u10e0\u10d8\u10e1\u10e2\u10d8\u10d0\u10dc\u10e3\u10da\u10d8": 1571,
  "\u2581James": 1572,
  "\u2581\u10d5\u10d8\u10e7\u10dd\u10d7": 1573,
  "\u2581\u10e0\u10dd\u10db\u10da\u10d4\u10d1\u10e1\u10d0\u10ea": 1574,
  "\u2581\u10e5\u10d0\u10da\u10d0\u10e5": 1575,
  "\u10d6\u10d7": 1576,
  "\u2581Today": 1577,
  "\u2581\u10f2\u10d1": 1578,
  "\u10dd\u10f2": 1579,
  "\u10ee\u10da": 1580,
  "\u2581attitude": 1581,
  "\u2581\u10ec\u10d4\u10da\u10d8": 1582,
  "\u2581\u10d0\u10e1": 1583,
  "\u10e4\u10d0\u10e0": 1584,
  "\u2581\u10dd": 1585,
  "am": 1586,
  "\u2581started": 1587,
  "ty": 1588,
  "ated": 1589,
  "F": 1590,
  "\u2581Hey": 1591,
  "\u2581\u10ea\u10dd\u10e2\u10d0": 1592,
  "\u2581\u10e1\u10e3\u10e0\u10d5\u10d8\u10da\u10d8": 1593,
  "\u2581teach": 1594,
  "\u10d6\u10d0\u10e0": 1595,
  "\u2581anyone": 1596,
  "\u2581Romans": 1597,
  "\u2581prophet": 1598,
  "\u2581head": 1599,
  "N": 1600,
  "\u10df\u10e0\u10d7": 1601,
  "ver": 1602,
  "\u10d1\u10dd": 1603,
  "\u10ee\u10d5\u10d8": 1604,
  "\u2581Or": 1605,
  "\u2581\u10d2\u10d0\u10dc\u10e1\u10d0\u10d9\u10e3\u10d7\u10e0\u10d4\u10d1\u10d8\u10d7": 1606,
  "\u2581\u10d7\u10d5\u10d0\u10da\u10e1\u10d0\u10d6\u10e0\u10d8\u10e1\u10d8": 1607,
  "\u2581\u10de\u10d0": 1608,
  "op": 1609,
  "\u2581m": 1610,
  "\u2581\u10e0\u10d0\u10e6\u10d0\u10ea": 1611,
  "\u10ec\u10d4\u10d5": 1612,
  "\u2581\u10d3\u10d4": 1613,
  "\u2581involved": 1614,
  "\u10d4\u10d1\u10d8\u10e1\u10d7\u10d5\u10d8\u10e1": 1615,
  "\u2581false": 1616,
  "\u10d4\u10d1\u10d3\u10dc\u10d4\u10dc": 1617,
  "\u2581\u10d9\u10d0\u10e0": 1618,
  "\u2581\u10e8\u10d4\u10d0": 1619,
  "\u10d0\u10da": 1620,
  "\u2581\u10e5\u10e0\u10d8\u10e1\u10e2\u10d8\u10d0\u10dc\u10d4\u10d1\u10e1": 1621,
  "\u2581\u10ef": 1622,
  "\u10d5\u10d4\u10da": 1623,
  "\u25814.": 1624,
  "\u2581X": 1625,
  "\u10d2\u10d0\u10e0": 1626,
  "\u2581six": 1627,
  "se": 1628,
  "\u10de\u10d0\u10e0": 1629,
  "\u2581Dur": 1630,
  "\u2581equal": 1631,
  "\u2581mail": 1632,
  "\u2581\u10ee\u10d4\u10da\u10e1": 1633,
  "\u2581\u10db\u10dc\u10d8\u10e8\u10d5\u10dc\u10d4\u10da\u10dd\u10d5\u10d0\u10dc\u10d8\u10d0": 1634,
  "\u2581\u10e1\u10ee\u10d5\u10d4\u10d1\u10e1": 1635,
  "\u2581kg": 1636,
  "\u10d2\u10d6\u10d0": 1637,
  "\u2581divine": 1638,
  "\u2581\u10d8\u10e1\u10d4\u10d7": 1639,
  "\u2581\u10e5\u10d5\u10d4\u10e7\u10d0\u10dc\u10d0\u10e8\u10d8": 1640,
  "\u2581\u10e9\u10d5\u10d4\u10dc\u10d7\u10d5\u10d8\u10e1": 1641,
  "\u2581Credit": 1642,
  "\u2581return": 1643,
  "\u10e2\u10d4\u10d1\u10d8": 1644,
  "\u2581\u10ed\u10d4\u10e8\u10db\u10d0\u10e0\u10d8\u10e2\u10d4\u10d1\u10d0": 1645,
  "\u2581\u10d2\u10e3\u10da\u10d8\u10d7": 1646,
  "\u2581nation": 1647,
  "\u2581\u10db\u10dd\u10d3\u10d8": 1648,
  "ary": 1649,
  "\u2581alone": 1650,
  "\u2581evidence": 1651,
  "\u2581stop": 1652,
  "ut": 1653,
  "\u2581\u10e8\u10d4\u10e3\u10eb\u10da\u10d8\u10d0\u10d7": 1654,
  "ism": 1655,
  "lu": 1656,
  "\u2581\u10ea\u10ee\u10dd\u10d5\u10e0\u10d4\u10d1\u10d0\u10e8\u10d8": 1657,
  "\u2581happiness": 1658,
  "no": 1659,
  "\u2581\u10e1\u10e3\u10e0\u10d0\u10d7\u10d4\u10d1\u10d8": 1660,
  "\u2581States": 1661,
  "\u2581simply": 1662,
  "\u10d0\u10d5\u10e2\u10dd\u10e0\u10dd": 1663,
  "\u2581remain": 1664,
  "\u2581according": 1665,
  "\u2581According": 1666,
  "\u2581die": 1667,
  "\u2581\u10e6\u10db\u10d4\u10e0\u10d7\u10d8\u10e1": 1668,
  "\u2581&": 1669,
  "\u2581less": 1670,
  "\u10da\u10d4\u10d1\u10d8": 1671,
  "\u10dd\u10d1\u10e1": 1672,
  "\u10da\u10d4\u10d1\u10e1": 1673,
  "\u10d1\u10d8\u10d7": 1674,
  "\u2581kindness": 1675,
  "\u10e2\u10d8\u10d9": 1676,
  "\u2581based": 1677,
  "\u2581enough": 1678,
  "\u2581happened": 1679,
  "\u2581loved": 1680,
  "\u2581text": 1681,
  "\u2581common": 1682,
  "\u2581\u10db\u10e0\u10d0\u10d5\u10d0\u10da": 1683,
  "\u2581\u10df\u10d5\u10d3\u10d0": 1684,
  "\u2581st": 1685,
  "\u2581\u10e4": 1686,
  "\u2581months": 1687,
  "\u2581\u10dc\u10d5\u10e6\u10f2": 1688,
  "\u2581\u10e0\u10f2\u10d8": 1689,
  "1\u20444": 1690,
  "\u10d4\u10f2": 1691,
  "\u2581t": 1692,
  "\u2581\u10d9\u10d5\u10da\u10d0\u10d5": 1693,
  "\u2581\u10e1\u10d8\u10dc\u10d0\u10db\u10d3\u10d5\u10d8\u10da\u10d4\u10e8\u10d8": 1694,
  "\u2581\u10db\u10d8\u10e6\u10d4\u10d1\u10d0": 1695,
  "\u2581\u10e3\u10e4\u10da\u10d4\u10d1\u10d0": 1696,
  "\u258133": 1697,
  "\u2581\u10d2\u10d0\u10d5": 1698,
  "\u10ee\u10e1\u10d4\u10dc": 1699,
  "\u2581\u10d1\u10d0": 1700,
  "\u2581\u10d3\u10d4\u10d3\u10d0": 1701,
  "\u2581matters": 1702,
  "sh": 1703,
  "\u2581\u10d2\u10d8": 1704,
  "\u2581gives": 1705,
  "\u2581\u10e1\u10d0\u10e1\u10d8\u10ee\u10d0\u10e0\u10e3\u10da\u10dd": 1706,
  "\u2581100": 1707,
  "\u2581certainly": 1708,
  "\u2581\u10da\u10dd": 1709,
  "\u2581\u10d3\u10e6\u10d8\u10e1": 1710,
  "\u2581\u25aa": 1711,
  "\u10d3\u10d4\u10d1\u10d8\u10d7": 1712,
  "\u10ee\u10d4": 1713,
  "\u2581actually": 1714,
  "\u2581\u10db\u10dd\u10ee\u10d3\u10d0": 1715,
  "\u2581pray": 1716,
  "\u2581\u10d4\u10d5": 1717,
  "ating": 1718,
  "\u10e4\u10d4\u10e0": 1719,
  "\u2581public": 1720,
  "\u2581\u10d2\u10d0\u10e0\u10d4\u10e8\u10d4": 1721,
  "\u2581Like": 1722,
  "\u2581followers": 1723,
  "\u2581p": 1724,
  "\u2581\u10dd\u10e0\u10d8\u10d5\u10d4": 1725,
  "\u2581\u10db\u10d0\u10e0\u10e2\u10dd": 1726,
  "\u2581shows": 1727,
  "\u10ef\u10d0": 1728,
  "\u2581else": 1729,
  "&": 1730,
  "\u10e3\u10d1": 1731,
  "\u10ed\u10d8\u10e0": 1732,
  "\u25813,": 1733,
  "\u2581Will": 1734,
  "\u2581material": 1735,
  "\u2581Solomon": 1736,
  "\u2581\u10e9\u10d0\u10ec\u10d4\u10e0\u10d8\u10da\u10d8": 1737,
  "\u2581\u10d8\u10db\u10d8\u10e2\u10dd\u10db": 1738,
  "\u2581\u10ec\u10d8\u10dc\u10d0\u10d0\u10e6\u10db\u10d3\u10d4\u10d2": 1739,
  "\u2581serious": 1740,
  "\u2581Synchronis": 1741,
  "\u2581Go": 1742,
  "\u2581individuals": 1743,
  "\u2581stand": 1744,
  "\u2581comfort": 1745,
  "\u2581\u10d4\u10e0\u10d7\u10db\u10d0": 1746,
  "\u2581\u10d2\u10d0\u10e1\u10d0": 1747,
  "\u2581\u10db\u10e8\u10dd\u10d1\u10da\u10d4\u10d1\u10d8": 1748,
  "\u2581\u10dd\u10d7": 1749,
  "\u2581\u10d9\u10dd": 1750,
  "\u2581\u10d9\u10e0\u10d4\u10d1\u10d0\u10e8\u10d8": 1751,
  "\u2581\u10e1\u10d8\u10e2\u10e7\u10d5\u10d8\u10e1": 1752,
  "\u2581line": 1753,
  "\u2581meaning": 1754,
  "\u10d4\u10d1\u10d8\u10d3\u10d0\u10dc": 1755,
  "\u2581\u10d2\u10d0\u10d4": 1756,
  "\u2581longer": 1757,
  "\u2581\u10d2\u10d6\u10d0": 1758,
  "\u10ec\u10d0": 1759,
  "\u10dc\u10d4\u10e1": 1760,
  "um": 1761,
  "\u2581listen": 1762,
  "\u2581\u10db\u10e1\u10d0\u10ee\u10e3\u10e0\u10d4\u10d1\u10d8\u10e1": 1763,
  "You": 1764,
  "\u2581\u10db\u10d0\u10e0": 1765,
  "\u10d9\u10d8\u10e1": 1766,
  "\u10e4\u10d8\u10e5\u10e0": 1767,
  "\u2581\u10db\u10d3\u10d2\u10dd\u10db\u10d0\u10e0\u10d4\u10dd\u10d1\u10d0": 1768,
  "\u2581\u10d5\u10d8\u10e7\u10d0\u10d5\u10d8": 1769,
  "\u2581percent": 1770,
  "\u2581\u10db\u10dc\u10d8\u10e8\u10d5\u10dc\u10d4\u10da\u10dd\u10d1\u10d0": 1771,
  "\u2581\u10e3\u10e4\u10da\u10d8\u10e1": 1772,
  "\u2581Look": 1773,
  "\u2581area": 1774,
  "\u2581history": 1775,
  "\u2581physical": 1776,
  "\u2581truly": 1777,
  "\u2581Pictures": 1778,
  "\u2581organization": 1779,
  "\u2581hands": 1780,
  "\u2581resurrection": 1781,
  "\u2581lot": 1782,
  "\u2581stay": 1783,
  "\u2581\u10e1\u10d0\u10dc\u10d0\u10db": 1784,
  "\u2581\u201c(": 1785,
  "\u2581fully": 1786,
  "\u2581De": 1787,
  "ad": 1788,
  "\u2581\u10d7\u10d0\u10d5\u10d8\u10d0\u10dc\u10d7": 1789,
  "\u2581\u10e7": 1790,
  "\u2581deal": 1791,
  "\u2581\u10db\u10ee\u10e0\u10d8\u10d5": 1792,
  "G": 1793,
  "\u2581changed": 1794,
  "\u2581side": 1795,
  "\u2581walk": 1796,
  "\u2581\u10dd\u10d7\u10ee\u10d8": 1797,
  "\u2581interest": 1798,
  "ance": 1799,
  "\u2581accept": 1800,
  "\u2581\u10d7\u10d0\u10d5": 1801,
  "\u2581sons": 1802,
  "\u10d5\u10d4\u10e1": 1803,
  "\u25812.": 1804,
  "espite": 1805,
  "\u10d5\u10d4\u10da\u10d8": 1806,
  "\u2581\u10db\u10dd\u10ec\u10db\u10d4\u10d4\u10d1\u10d8\u10e1": 1807,
  "\u2581provided": 1808,
  "\u2581Rather": 1809,
  "\u10d3\u10f2": 1810,
  "\u2581\u10d3\u10d0\u10d9\u10d0\u10d5\u10e8\u10d8\u10e0\u10d4\u10d1\u10e3\u10da\u10d8": 1811,
  "\u2581\u10d4\u10e0\u10d7\u10db\u10d0\u10dc\u10d4\u10d7\u10e1": 1812,
  "\u2581within": 1813,
  "\u2581\u10db\u10d6\u10d0\u10d3": 1814,
  "\u10db\u10f2": 1815,
  "\u10ee\u10e1": 1816,
  "\u2581wonderful": 1817,
  "\u10f3\u10d0": 1818,
  "\u2581written": 1819,
  "\u2581Hebrew": 1820,
  "\u2581car": 1821,
  "\u2581\u10e1\u10d0\u10d3": 1822,
  "\u2581\u10e1\u10d0\u10db\u10e3\u10e8\u10d0\u10dd": 1823,
  "\u10d2\u10d4": 1824,
  "\u2581\u10d3\u10d0\u10ec\u10d4\u10e0\u10d0": 1825,
  "\u201c?": 1826,
  "\u2581short": 1827,
  "\u2581\u10db\u10d0\u10d7\u10d7\u10d5\u10d8\u10e1": 1828,
  "\u2581further": 1829,
  "\u2581mentioned": 1830,
  "\u2581rather": 1831,
  "),": 1832,
  "\u2581everlasting": 1833,
  "\u2581\u10dd\u10f2\u10d4": 1834,
  "ence": 1835,
  "\u2581sacrifice": 1836,
  "\u2581Organisation": 1837,
  "\u2581\u10db\u10d5\u10dc": 1838,
  "\u10e2\u10e0\u10d8": 1839,
  "\u2581Line": 1840,
  "\u2581Roman": 1841,
  "\u2581Their": 1842,
  "me": 1843,
  "\u2581\u10df\u10d0\u10db": 1844,
  "\u2581\u10ee\u10d0\u10da\u10ee\u10d8\u10e1": 1845,
  "\u2581\u10ea\u10dc\u10dd\u10d1\u10d0": 1846,
  "\u10d8\u10dc\u10d0": 1847,
  "\u2581lived": 1848,
  "\u2581\u10e0\u10d5\u10d1": 1849,
  "\u2581greater": 1850,
  "\u2581strength": 1851,
  "\u2581\u10db\u10dd\u10e1\u10d0": 1852,
  "\u2581million": 1853,
  "\u2581Genesis": 1854,
  "\u2581pain": 1855,
  "\u2581\u10db\u10d4\u10e2": 1856,
  "\u2581\u10d9\u10d5": 1857,
  "go": 1858,
  "\u2581\u10ee\u10d4\u10da\u10d8": 1859,
  "\u2581\u10df\u10e0\u10d5": 1860,
  "\u10d8\u10d6": 1861,
  "\u2581spiritually": 1862,
  "ho": 1863,
  "?\u201c": 1864,
  "\u10e7\u10d4\u10dc\u10d4\u10d1": 1865,
  "\u258110.": 1866,
  "\u2581Good": 1867,
  "\u2581\u10d4\u10d5\u10d9\u10d0": 1868,
  "\u2581born": 1869,
  "he": 1870,
  "\u2581hold": 1871,
  "\u2581prove": 1872,
  "\u2581\u10f1\u10d0\u10e6\u10f2": 1873,
  "\u10d5\u10d8\u10dc": 1874,
  "\u25810": 1875,
  "V": 1876,
  "\u2581meeting": 1877,
  "\u2581'": 1878,
  "\u2581Move": 1879,
  "\u2581deep": 1880,
  "\u2581\u10db\u10dd\u10ea\u10d4\u10db\u10e3\u10da\u10d8": 1881,
  "\u10d3\u10d4\u10d1\u10d8": 1882,
  "\u10e7\u10dc": 1883,
  "\u2581qualities": 1884,
  "\u2581sister": 1885,
  "\u2581\u10d9\u10da": 1886,
  "\u10e1\u10d0\u10d2\u10e3\u10e8\u10d0\u10d2\u10dd": 1887,
  "\u258160": 1888,
  "\u2581sheep": 1889,
  "\u2581soul": 1890,
  "\u2581\u25cf": 1891,
  "\u2581class": 1892,
  "\u2581\u10e0\u10ec\u10db\u10d4\u10dc\u10d8\u10e1": 1893,
  "\u2581\u10db\u10dd\u10e3": 1894,
  ".\"": 1895,
  "\u258170": 1896,
  "\u10dc\u10e1": 1897,
  "\u2581places": 1898,
  "\u2581\u10d5\u10e3": 1899,
  "\u2581forever": 1900,
  "\u2581promise": 1901,
  "\u2581\u10e5\u10e0\u10d8\u10e1\u10e2\u10d8\u10d0\u10dc\u10e3\u10da": 1902,
  "\u2581kept": 1903,
  "\u2581\u10f1": 1904,
  "\u258111:": 1905,
  "\u10dd\u10dc\u10d8": 1906,
  "\u2581showed": 1907,
  "\u2581\u10d0\u10d3\u10e0\u10d4": 1908,
  "\u2581gift": 1909,
  "\u2581inspired": 1910,
  "\u2581\u10d0\u10d6\u10e0\u10d8": 1911,
  "\u10e7\u10de": 1912,
  "\u10dc\u10d4\u10dc": 1913,
  "\u10e3\u10dc": 1914,
  "\u25813.": 1915,
  "\u2581fire": 1916,
  "\u2581righteousness": 1917,
  "\u2581shall": 1918,
  "\u2581\u10e0\u10dd\u10db\u10d4\u10da\u10db\u10d0\u10ea": 1919,
  "\u2581\u10d5\u10d8\u10dc\u10d0\u10d8\u10d3\u10d0\u10dc": 1920,
  "\u10d3\u10d4\u10dc": 1921,
  "\u2581named": 1922,
  "\u2581\u10ec\u10d8\u10dc\u10d0": 1923,
  "\u2581perhaps": 1924,
  "\u2581\u10ec\u10d0\u10e0": 1925,
  "\u2581\u10d3\u10e0\u10dd\u10d8\u10e1": 1926,
  "\u10d8\u10e1\u10d0": 1927,
  "\u2581\u10d2\u10d0\u10dc\u10d5\u10d8\u10ee\u10d8\u10da\u10dd\u10d7": 1928,
  "\u2581\u10dc\u10d0\u10ea\u10d5\u10da\u10d0\u10d3": 1929,
  "\u2581\u10e7\u10dd\u10d5\u10d4\u10da": 1930,
  "\u10df\u10d0": 1931,
  "\u2581job": 1932,
  "\u201e": 1933,
  "\u2581key": 1934,
  "\u2581meet": 1935,
  "\u10db\u10d6\u10d0\u10d3": 1936,
  "\u10e9\u10d4\u10dc": 1937,
  "\u2581easy": 1938,
  "\u2581Have": 1939,
  "\u2581\u10e1\u10e3\u10da\u10d8\u10e1": 1940,
  "ru": 1941,
  "\u2581effort": 1942,
  "\u10dd\u10dc\u10d8\u10e1": 1943,
  "\u2581Daniel": 1944,
  "\u25818:": 1945,
  "\u2581%1": 1946,
  "\u2581slave": 1947,
  "\u2581write": 1948,
  "\u10e3\u10da\u10d0\u10d3": 1949,
  "\u2581\u10d8\u10e1\u10d8\u10ea": 1950,
  "\u2581apostles": 1951,
  "\u2581\u10db\u10ea\u10d8\u10e0\u10d4": 1952,
  "\u2581Jewish": 1953,
  "\u2581getting": 1954,
  "\u2581prophecy": 1955,
  "\u25818.": 1956,
  "ies": 1957,
  "\u2581doubt": 1958,
  "\u10d2\u10d0\u10db": 1959,
  "\u10d4\u10d1\u10d4\u10da": 1960,
  "\u2581initialise": 1961,
  "\u2581\u10e1\u10e2\u10d0\u10e2\u10d8\u10d0\u10e8\u10d8": 1962,
  "\u2581\u10f1\u10dc\u10d0\u10d5\u10e5": 1963,
  "\u10e8\u10d4\u10dc": 1964,
  "\u2581Evolution": 1965,
  "\u2581feet": 1966,
  "ie": 1967,
  "\u10d6\u10d5": 1968,
  "\u2581Ma": 1969,
  "\u2581myself": 1970,
  "\u2581circumstances": 1971,
  "\u2581Mark": 1972,
  "\u25815.": 1973,
  "\u2581rule": 1974,
  "\u2581understanding": 1975,
  "\u2581available": 1976,
  "\u2581\u10e0\u10dd\u10db\u10d4\u10da\u10d8": 1977,
  "\u2581May": 1978,
  "\u2581\u10dd\u10ef\u10d0\u10ee\u10d8": 1979,
  "\u2581pre": 1980,
  "\u2581\u10d0\u10d2": 1981,
  "\u2581\u10d7\u10d0\u10dc": 1982,
  "\u2581Joseph": 1983,
  "\u2581\u10da\u10d8": 1984,
  "\u2581\u10de\u10d5": 1985,
  "\u25817.": 1986,
  "\u2581older": 1987,
  "\u2581couple": 1988,
  "\u2581\u10e8\u10d4\u10db\u10d7\u10ee\u10d5\u10d4\u10d5\u10d0": 1989,
  "\u2581Devil": 1990,
  "\u2581La": 1991,
  "pe": 1992,
  "\u10de\u10e0": 1993,
  "\u10e0\u10ec": 1994,
  "\u10e3\u10db": 1995,
  "\u10dd\u10d0": 1996,
  "\u2581e": 1997,
  "\u2581eat": 1998,
  "\u2581\u10e8\u10d4\u10db": 1999,
  "ish": 2000,
  "\u2581sisters": 2001,
  "\u2581therefore": 2002,
  "\u2581\u10d7\u10d8\u10d7\u10e5\u10db\u10d8\u10e1": 2003,
  "tic": 2004,
  "\u2581ex": 2005,
  "\u2581authority": 2006,
  "\u2581itself": 2007,
  "\u2581\u10e1\u10d0\u10e5\u10d0\u10e6\u10d0\u10da\u10d3\u10d4": 2008,
  "\u2581powerful": 2009,
  "\u2581\u10db\u10d0\u10e1\u10d7\u10d0\u10dc": 2010,
  "\u2581\u10de\u10d0\u10e1\u10e3\u10ee\u10d8": 2011,
  "\u2581\u10d5\u10d8\u10e1": 2012,
  "\u10d3\u10d4\u10d1\u10d8\u10d0\u10dc": 2013,
  "\u0152": 2014,
  "\u2581\u10d3\u10d0\u10d2\u10d5\u10d4\u10ee\u10db\u10d0\u10e0\u10d4\u10d1\u10d0": 2015,
  "\u2581\u10d0\u10e0\u10d0\u10e1\u10dd\u10d3\u10d4\u10e1": 2016,
  "\u10d5\u10db": 2017,
  "\u2581R": 2018,
  "\u2581looking": 2019,
  "\u2581\u10e5\u10d5\u10d4\u10e7\u10dc\u10d8\u10d4\u10e0\u10d4\u10d1\u10d8\u10e1": 2020,
  "\u2581\u10e3\u10d1\u10e0\u10d0\u10da\u10dd\u10d3": 2021,
  "\u10d4\u10d1\u10e1\u10d0": 2022,
  "\u10db\u10d0\u10e0": 2023,
  "\u2581working": 2024,
  "\u2581\u10d7\u10d0\u10d5\u10d8\u10d3\u10d0\u10dc": 2025,
  "\u2581\u10e9\u10d5\u10d4\u10dc\u10ea": 2026,
  "om": 2027,
  "\u2581honor": 2028,
  "\u2581\u10d2\u10df\u10d7\u10e4\u10d9\u10f2": 2029,
  "\u2581\u10d3\u10d0\u10ee\u10db\u10d0\u10e0\u10d4\u10d1\u10d0": 2030,
  "\u2581\u10ee\u10e3\u10d7\u10d8": 2031,
  "\u2581\u10db\u10e1\u10d0\u10ee\u10e3\u10e0\u10d4\u10d1\u10d0\u10e8\u10d8": 2032,
  "tra": 2033,
  "\u2581judgment": 2034,
  "\u2581speaking": 2035,
  "\u2581\u10d6\u10dd\u10d2\u10d8\u10d4\u10e0\u10d7\u10d8": 2036,
  "\u2581\u10e4\u10e1": 2037,
  "\u10d4\u10d3": 2038,
  "\u10f1\u10d7": 2039,
  "\u2581\u10db\u10dd\u10ea\u10d8\u10e5\u10e3\u10da\u10db\u10d0": 2040,
  "\u2581gain": 2041,
  "\u2581build": 2042,
  "\u2581sound": 2043,
  "!\u201c": 2044,
  "\u2581\u10dc\u10d8": 2045,
  "\u2581Still": 2046,
  "\u2581least": 2047,
  "\u2581\u10d0\u10ee\u10da\u10dd": 2048,
  "\u10d4\u10da\u10e1": 2049,
  "\u2581wants": 2050,
  "\u2581\u10db\u10d8\u10e1\u10d7\u10d5\u10d8\u10e1": 2051,
  "\u2581issue": 2052,
  "\u258124:": 2053,
  "\u2581sea": 2054,
  "\u2581\u10e1\u10e3\u10e0\u10e1": 2055,
  "\u2581girl": 2056,
  "\u10d1\u10dd\u10d3\u10d0": 2057,
  "\u2581church": 2058,
  "\u10e1\u10ec\u10dd\u10e0": 2059,
  "\u2581component": 2060,
  "\u2581poor": 2061,
  "\u2581\u10e1\u10d0\u10e8\u10e3\u10d0\u10da\u10d4\u10d1\u10d0": 2062,
  "\u2581Hebrews": 2063,
  "\u2581seven": 2064,
  "\u2581\u10db\u10e8\u10dd\u10d1\u10da\u10d4\u10d1\u10e1": 2065,
  "\u2581\u10dd\u10d0": 2066,
  "\u2581\u10e1\u10d8\u10d9\u10d5\u10d3\u10d8\u10da\u10d8": 2067,
  "\u2581\u10d1\u10d4\u10d5\u10e0": 2068,
  "\u2581\u10ea\u10dd\u10d3\u10dc\u10d0": 2069,
  "\u2581met": 2070,
  "\u2581\u10db\u10dd\u10db\u10d3\u10d4\u10d5\u10dc\u10dd": 2071,
  "\u2581office": 2072,
  "\u2581\u10e8\u10d5\u10d8\u10da\u10d4\u10d1\u10e1": 2073,
  "\u2581government": 2074,
  "\u2581role": 2075,
  "\u2581\u10d5\u10d9\u10d8\u10d7\u10ee\u10e3\u10da\u10dd\u10d1\u10d7": 2076,
  "\u2581play": 2077,
  "\u10d1\u10f2": 2078,
  "\u2581Life": 2079,
  "\u2581\u10d7\u10df\u10d9\u10d0\u10db": 2080,
  "\u2581\u10db\u10dd\u10e1\u10d4\u10e1": 2081,
  "ca": 2082,
  "\u2581Thank": 2083,
  "\u2581effect": 2084,
  "\u10d5\u10d7": 2085,
  "\u2581Scriptural": 2086,
  "\u10e1\u10e3\u10da\u10d8": 2087,
  "\u2581clean": 2088,
  "\u2581half": 2089,
  "\u2581miles": 2090,
  "ure": 2091,
  "\u2581instance": 2092,
  "\u2581report": 2093,
  "\u2581above": 2094,
  "\u2581pages": 2095,
  "\u2581events": 2096,
  "ig": 2097,
  "\u10ef\u10d8": 2098,
  "\u2581\u10e3\u10d3\u10e0\u10d8\u10e1": 2099,
  "\u10d9\u10d0\u10e0\u10d0": 2100,
  "\u2581tried": 2101,
  "con": 2102,
  "\u2581Indeed": 2103,
  "\u2581sun": 2104,
  "\u10dc\u10d7\u10e0\u10d5": 2105,
  "\u2581seem": 2106,
  "\u10d2\u10e7\u10de": 2107,
  "\u2581visit": 2108,
  "\u258114.": 2109,
  "\u2581Witness": 2110,
  "\u10d1\u10d3\u10d0": 2111,
  "\u2581\u10eb\u10da\u10d8\u10d4\u10e0\u10d8": 2112,
  "\u2581held": 2113,
  "\u2581beautiful": 2114,
  "\u2581spoke": 2115,
  "\u2581seek": 2116,
  "mo": 2117,
  "\u2581hours": 2118,
  "\u2581\u10e1\u10d0\u10e3\u10d9\u10e3\u10dc\u10d8\u10e1": 2119,
  "\u25819.": 2120,
  "\u2581efforts": 2121,
  "\u2581several": 2122,
  "ha": 2123,
  "ton": 2124,
  "\u2581\u10e6": 2125,
  "\u2581everyone": 2126,
  "co": 2127,
  "\u2581\u10d2\u10d5\u10d4\u10e0\u10d3\u10d6\u10d4": 2128,
  "\u10d8\u10d9": 2129,
  "\u2581period": 2130,
  "\u2581direction": 2131,
  "\u2581led": 2132,
  "\u2581\u10d2\u10e0\u10eb\u10dc\u10dd\u10d1\u10d0": 2133,
  "\u2581Box": 2134,
  "\u2581\u10d9\u10d0\u10d9\u10f2": 2135,
  "\u2581\u10db\u10d8\u10e3": 2136,
  "\u258111.": 2137,
  "\u2581sign": 2138,
  "\u2581congregations": 2139,
  "\u2581First": 2140,
  "ti": 2141,
  "\u2581morning": 2142,
  "\u2581natural": 2143,
  "\u2581\u10d2\u10d0\u10db\u10dd\u10ea": 2144,
  "\u2581draw": 2145,
  "\u2581trying": 2146,
  "00": 2147,
  "\u2581heavens": 2148,
  "\u2581regarding": 2149,
  "Comment": 2150,
  "\u2581modern": 2151,
  "\u2581\u10db\u10d0\u10e0\u10d7\u10d0\u10da\u10d8\u10d0": 2152,
  "\u2581\u10e7\u10dd\u10d5\u10d4\u10da\u10d8\u10d5\u10d4": 2153,
  "\u2581Mary": 2154,
  "\u2581confidence": 2155,
  "\u2581\u10e1\u10d8\u10d0": 2156,
  "\u2581Canno": 2157,
  "\u2581St": 2158,
  "\u2581V": 2159,
  "\u2581Noah": 2160,
  "\u2581pioneer": 2161,
  "\u2581\u10d8\u10e1\u10e0\u10d0\u10d4\u10da\u10d8\u10e1": 2162,
  "\u2581\u10dd\u10de\u10d5\u10d4": 2163,
  "\u2581birth": 2164,
  "\u2581examples": 2165,
  "\u10d8\u10d6\u10d8": 2166,
  "\u2581considered": 2167,
  "fi": 2168,
  "\u2581Instead": 2169,
  "\u2581moral": 2170,
  "\u2581offer": 2171,
  "\u2581\u10e4\u10d0": 2172,
  "\u2581boy": 2173,
  "\u2581\u10da\u10d4": 2174,
  "\u2581opportunity": 2175,
  "\u2581\u10e1\u10d0\u10e2\u10d0\u10dc\u10d0": 2176,
  "\u258112.": 2177,
  "\u2581True": 2178,
  "\u2581helps": 2179,
  "and": 2180,
  "\u2581\u10e3\u10dc\u10d0\u10e0\u10d8": 2181,
  "\u10e9\u10d4": 2182,
  "\u2581\u10e8\u10d4\u10d5": 2183,
  "K": 2184,
  "\u2581door": 2185,
  "our": 2186,
  "\u10d3\u10d2\u10d4\u10dc": 2187,
  "\u2581\u10e1\u10d0\u10e3\u10d9\u10d4\u10d7\u10d4\u10e1\u10dd": 2188,
  "\u2581*.": 2189,
  "\u2581negative": 2190,
  "\u2581\u10d9\u10e7\u10d4\u10d5": 2191,
  "\u2581\u10db\u10dd\u10d0\u10e5\u10d5\u10e1": 2192,
  "\u2581big": 2193,
  "\u2581promises": 2194,
  "\u2581\u10d0\u10e0\u10d0\u10e4\u10d4\u10e0\u10d8": 2195,
  "\u2581\u10db\u10dd\u10ea\u10d8\u10e5\u10e3\u10da\u10d8": 2196,
  "\u2581explains": 2197,
  "\u2581\u10d3\u10d0\u10e0\u10ec\u10db\u10e3\u10dc\u10d4\u10d1\u10e3\u10da\u10d8": 2198,
  "\u2581\u10db\u10d0\u10e1\u10d6\u10d4": 2199,
  "mp": 2200,
  "\u10dc\u10d4\u10da": 2201,
  "\u2581letter": 2202,
  "\u2581imitate": 2203,
  "\u2581explained": 2204,
  "W": 2205,
  "\u10e4\u10e0": 2206,
  "\u2581standards": 2207,
  "\u2581\u10db\u10f2\u10d3\u10d0": 2208,
  "\u2581decision": 2209,
  "\u2581published": 2210,
  "ors": 2211,
  "\u2581\u10e0\u10e9\u10d4\u10d5\u10d0": 2212,
  "\u10e1\u10d0\u10d3\u10db\u10d8": 2213,
  "\u2581answers": 2214,
  "\u2581countries": 2215,
  "\u2581pay": 2216,
  "ta": 2217,
  "\u2581daughter": 2218,
  "\u2581\u10eb\u10d5": 2219,
  "\u10d1\u10e0\u10e3": 2220,
  "\u2581single": 2221,
  "\u2581\u10db\u10d8\u10e1\u10ea\u10d0": 2222,
  "\u2581magazine": 2223,
  "\u2581\u10d0\u10e3": 2224,
  "\u2581\u10db\u10dd\u10ec\u10db\u10d4\u10d4\u10d1\u10e1": 2225,
  "\u2581co": 2226,
  "\u2581\u10db\u10ea\u10ee\u10dd\u10d5\u10e0\u10d4\u10d1": 2227,
  "\u2581\u10e6\u10d8\u10e0\u10e1": 2228,
  "\u2581\u10d0\u10e0\u10d0\u10e1\u10d3\u10e0\u10dd\u10e1": 2229,
  "\u2581stated": 2230,
  "\u2581week": 2231,
  "\u10d0\u10da\u10d8": 2232,
  "\u2581continued": 2233,
  "\u2581pro": 2234,
  "\u25816.": 2235,
  "\u2581\u10d5\u10d8\u10ea\u10d8\u10d7": 2236,
  "va": 2237,
  "\u10dc\u10e3": 2238,
  "\u2581various": 2239,
  "\u2581apply": 2240,
  "\u2581\u10de\u10d8\u10e0\u10dd\u10d5\u10dc\u10d4\u10d1\u10d0": 2241,
  "\u258113.": 2242,
  "\u2581display": 2243,
  "\u2581\u10d3\u10d0\u10d5\u10d0": 2244,
  "\u2581respond": 2245,
  "\u2581ability": 2246,
  "\u2581\u10d2\u10e1\u10e3\u10e0\u10d7": 2247,
  "ical": 2248,
  "pp": 2249,
  "\u2581\u10d1\u10d4": 2250,
  "em": 2251,
  "\u2581\u10e7\u10dd\u10d5\u10d4\u10da\u10d8": 2252,
  "\u2581\u10e8\u10d4\u10e1\u10d0\u10eb\u10da\u10d4\u10d1\u10d4\u10da\u10d8\u10d0": 2253,
  "\u10d4\u10e2": 2254,
  "\u10dc\u10d4\u10d1\u10e1": 2255,
  "\u10df\u10d7": 2256,
  "\u258137": 2257,
  "\u2581served": 2258,
  "\u2581\u10d8\u10d2\u10d8\u10d5\u10d4": 2259,
  "\u2581\u10e1\u10ee\u10d5\u10d4\u10d1\u10d8\u10e1": 2260,
  "\u2581\u10f0\u10e5\u10dd\u10dc\u10d3\u10d0\u10d7": 2261,
  "\u2581whose": 2262,
  "\u2581\u10d2\u10d0\u10d3\u10db\u10dd": 2263,
  "\u2581Catholic": 2264,
  "\u2581Hence": 2265,
  "\u2581field": 2266,
  "\u2581vital": 2267,
  "\u2581\u10d2\u10d0\u10db\u10d0": 2268,
  "\u10d0\u10ea\u10d8\u10d0": 2269,
  "\u2581Great": 2270,
  "\u2581\u10dd\u10e1": 2271,
  "\u10d7\u10e3": 2272,
  "\u2581knows": 2273,
  "\u2581suffer": 2274,
  "\u10d5\u10d4\u10d1\u10e1": 2275,
  "\u2581choose": 2276,
  "\u2581sorry": 2277,
  "\u2581\u10db\u10d8\u10dc\u10e3\u10e1": 2278,
  "\u2581\u10d2\u10d5\u10d4\u10ee\u10db\u10d0\u10e0\u10d4\u10d1\u10d0": 2279,
  "\u2581\u10d2\u10e3\u10da\u10e1": 2280,
  "\u2581\u10dc\u10d4\u10d1\u10d0": 2281,
  "\u2581\u10ec\u10d0\u10db\u10dd": 2282,
  "ph": 2283,
  "\u2581per": 2284,
  "ally": 2285,
  "\u10d1\u10d4\u10dc": 2286,
  "\u2581ready": 2287,
  "\u2581\u10e2": 2288,
  "\u25819:": 2289,
  "\u2581\u10ea\u10ee\u10dd\u10d5\u10e0\u10d4\u10d1\u10d0\u10e1": 2290,
  "\u10dd\u10d1\u10d3\u10d0": 2291,
  "\u10d9\u10e1": 2292,
  "\u10da\u10d8\u10d0\u10dc": 2293,
  "\u2581\u10d9\u10d0\u10e0\u10d2": 2294,
  "\u258115.": 2295,
  "\u2581fight": 2296,
  "\u2581\u10d2\u10e3\u10da\u10d8\u10e1": 2297,
  "\u2581\u10e1\u10e3\u10da\u10d8\u10d4\u10e0\u10d0\u10d3": 2298,
  "\u2581Me": 2299,
  "\u2581influence": 2300,
  "\u2581\u10e1\u10d0\u10e3\u10d9\u10e3\u10dc\u10d4\u10e8\u10d8": 2301,
  "\u10d3\u10d8\u10d3": 2302,
  "\u2581described": 2303,
  "\u2581\u10db\u10dd\u10dc\u10d0": 2304,
  "\u2581Get": 2305,
  "\u2581witness": 2306,
  "\u2581\u10ea\u10e0\u10e3": 2307,
  "\u2581N": 2308,
  "\u2581idea": 2309,
  "\u2581\u10d8\u10dc\u10e4\u10dd\u10e0\u10db\u10d0\u10ea\u10d8\u10d0": 2310,
  "\u2581\u10ec\u10e7\u10d0\u10e0\u10dd": 2311,
  "\u10de\u10d4": 2312,
  "\u258117.": 2313,
  "\u2581activities": 2314,
  "\u2581\u10d7\u10da\u10d7": 2315,
  "\u2581\u10ea\u10dc\u10dd\u10d1\u10d8\u10da\u10d8": 2316,
  "\u2581created": 2317,
  "\u2581loyal": 2318,
  "\u2581\u10ee\u10d0\u10e0\u10d7": 2319,
  "\u10dc\u10d8\u10d0": 2320,
  "\u2581complete": 2321,
  "\u2581force": 2322,
  "\u10db\u10e3": 2323,
  "\u2581entire": 2324,
  "\u2581Con": 2325,
  "\u2581address": 2326,
  "\u2581prison": 2327,
  "\u2581privilege": 2328,
  "\u2581\u10ed\u10d4\u10e8\u10db\u10d0\u10e0\u10d8\u10e2\u10d4\u10d1\u10d8\u10e1": 2329,
  "\u2581protect": 2330,
  "\u2581y": 2331,
  "\u2581\u10d9\u10d4\u10d7\u10d8\u10da\u10d8": 2332,
  "\u2581test": 2333,
  "ac": 2334,
  "\u2581appreciate": 2335,
  "\u2581\u10d6": 2336,
  "\u2581appropriate": 2337,
  "\u2581books": 2338,
  "\u2581blessing": 2339,
  "\u2581students": 2340,
  "\u2581behind": 2341,
  "\u2581Most": 2342,
  "\u2581forth": 2343,
  "\u2581source": 2344,
  "\u2581activity": 2345,
  "\u2581prayers": 2346,
  "\u2581\u10eb": 2347,
  "\u2581action": 2348,
  "au": 2349,
  "\u10da\u10d4\u10d1\u10d8\u10e1": 2350,
  "\u2581maintain": 2351,
  "\u10d5\u10e0\u10d5": 2352,
  "\u2581glory": 2353,
  "\u2581affect": 2354,
  "\u2581talking": 2355,
  "\u2581\u10d1\u10d0\u10d5\u10e8\u10d5\u10d8": 2356,
  "\u2581\u10db\u10d9\u10d5\u10d3\u10e0\u10d4\u10d7\u10d8\u10d7": 2357,
  "\u258115,": 2358,
  "\u2581happen": 2359,
  "\u2581parent": 2360,
  "\u2581\u10d7\u10d4": 2361,
  "\u10d3\u10e1": 2362,
  "\u2581Jeremiah": 2363,
  "\u2581position": 2364,
  "\u10dc\u10d7\u10ec": 2365,
  "\u258116.": 2366,
  "\u2581advice": 2367,
  "\u2581reach": 2368,
  "\u2581\u10d3\u10d8\u10d3\u10d4\u10d1\u10e3\u10da\u10d8": 2369,
  "\u2581\u10d4\u10f2\u10d1\u10de\u10f2": 2370,
  "\u2581killed": 2371,
  "\u10d8\u10ea": 2372,
  "\u10da\u10d8\u10d0": 2373,
  "\u10ee\u10e3": 2374,
  "\u2581almost": 2375,
  "\u2581voice": 2376,
  "\u2581Please": 2377,
  "\u2581\u10db\u10dd\u10d0": 2378,
  "\u2581teachings": 2379,
  "\u2581\u10ea\u10dc\u10dd\u10d1\u10d8\u10e1": 2380,
  "\u2581\u10eb\u10d5\u10d4\u10da\u10d8": 2381,
  "\u10d8\u10d0\u10dc\u10d8": 2382,
  "\u2581\u10e1\u10d8\u10e2\u10e7\u10d5\u10d4\u10d1\u10d8\u10e1": 2383,
  "\u2581\u10e8\u10d4\u10e1\u10d0\u10eb\u10da\u10d4\u10d1\u10da\u10dd\u10d1\u10d0": 2384,
  "\u10e4\u10d4": 2385,
  "\u2581\u10d2\u10d0\u10db\u10dd\u10d5\u10da\u10d4\u10dc\u10d0": 2386,
  "\u2581\u10d5\u10d7\u10e5\u10d5\u10d0\u10d7": 2387,
  "\u2581\u10e0\u10dd\u10d3\u10d8\u10e1": 2388,
  "\u10dd\u10d3\u10dc\u10d4\u10dc": 2389,
  "\u10e1\u10e0\u10e3\u10da": 2390,
  "\u2581grow": 2391,
  "\u2581thoughts": 2392,
  "\u2581willing": 2393,
  "\u10da\u10d4\u10d1\u10d0": 2394,
  "\u2581kill": 2395,
  "\u10d1\u10d4\u10da\u10d8": 2396,
  "\u10db\u10dd\u10dc": 2397,
  "God": 2398,
  "\u2581\u10d1\u10d8": 2399,
  "\u2581\u10d1\u10dd\u10e0\u10dd\u10e2\u10d8": 2400,
  "\u2581\u10ee\u10d4\u10da": 2401,
  "one": 2402,
  "\u2581\u10ea\u10e3\u10d3\u10d8": 2403,
  "\u2581Dr": 2404,
  "\u2581blessings": 2405,
  "\u2581clearly": 2406,
  "\u2581regard": 2407,
  "\u2581\u10e8\u10d4\u10d4\u10eb\u10da\u10dd": 2408,
  "\u2581recorded": 2409,
  "\u2581\u10e0\u10dd\u10db\u10d4\u10da\u10d7\u10d0": 2410,
  "\u2581\u10e1\u10d0\u10d9\u10db\u10d0\u10dd\u10d3": 2411,
  "\u10db\u10e2\u10d9\u10d8\u10ea": 2412,
  "\u2581contact": 2413,
  "\u2581tree": 2414,
  "\u2581\u10e8\u10d4\u10d5\u10d8": 2415,
  "\u2581conscience": 2416,
  "\u2581\u10d7\u10d8\u10d7\u10dd\u10d4\u10e3\u10da\u10d8": 2417,
  "\u10d4\u10e0\u10d7": 2418,
  "\u2581\u10d0\u10e6\u10dc\u10d8\u10e8\u10dc\u10d0": 2419,
  "\u2581\u10ee": 2420,
  "\u10d5\u10da\u10d4": 2421,
  "\u2581business": 2422,
  "\u2581\u10f2\u10e6\u10d5": 2423,
  "\u10d0\u10ee\u10da\u10dd": 2424,
  "\u2581\u10db\u10dd\u10ee\u10e1\u10d4\u10dc\u10d8\u10d4\u10d1\u10e3\u10da\u10d8": 2425,
  "\u2581\u10e6\u10d5\u10d7\u10d8\u10e1\u10d0\u10d3\u10db\u10d8": 2426,
  "\u2581\u10ea\u10d8": 2427,
  "\u2581\u10d0\u10e5\u10d4\u10d3\u10d0\u10dc": 2428,
  "\u2581\u10db\u10d0\u10e1\u10e8\u10d8": 2429,
  "\u2581Le": 2430,
  "\u2581exercise": 2431,
  "\u10dc\u10d4\u10d7": 2432,
  "\u10e2\u10e0\u10dd": 2433,
  "\u2581\u10dc\u10d0\u10d7\u10e5\u10d5\u10d0\u10db\u10d8": 2434,
  "\u10dc\u10d0\u10ee\u10d0": 2435,
  "\u10dc\u10d4\u10d1": 2436,
  "\u10dd\u10e0\u10d8": 2437,
  "\u2581accepted": 2438,
  "\u2581\u10d0\u10d6\u10e0\u10d8\u10d7": 2439,
  "\u2581\u10e8\u10d4\u10e1\u10d0\u10dc\u10d8\u10e8\u10dc\u10d0\u10d5\u10d8": 2440,
  "\u2581\u10dc\u10d0\u10db\u10d3\u10d5\u10d8\u10da\u10d8": 2441,
  "ions": 2442,
  "\u2581\u10d7\u10e5\u10d5\u10d4\u10dc\u10ea": 2443,
  "\u10e3\u10e1": 2444,
  "\u2581Eve": 2445,
  "\u2581\u10d3\u10d0\u10db\u10ee\u10db\u10d0\u10e0\u10d4": 2446,
  "Jehovah": 2447,
  "\u10db\u10dd\u10e1": 2448,
  "\u2581War": 2449,
  "\u2581\u10d4\u10d7": 2450,
  "\u2581\u10db\u10d0\u10d7\u10d2\u10d0\u10dc": 2451,
  "\u2581Here": 2452,
  "\u2581Man": 2453,
  "\u2581decisions": 2454,
  "\u2581ground": 2455,
  "\u2581earlier": 2456,
  "\u10d8\u10e1\u10d2\u10d0\u10dc": 2457,
  "\u2581\u10e1\u10ec\u10dd\u10e0\u10d8": 2458,
  "ap": 2459,
  "\u10e3\u10d5": 2460,
  "\u2581run": 2461,
  "\u2581Mr": 2462,
  "\u2581takes": 2463,
  "\u2581violence": 2464,
  "\u2581\u10e7\u10d5\u10d4\u10da\u10d0\u10e4\u10d4\u10e0\u10e1": 2465,
  "ak": 2466,
  "\u2581room": 2467,
  "\u2581thousands": 2468,
  "\u2581\u10d6\u10dd\u10d2": 2469,
  "\u2581Un": 2470,
  "\u2581\u10e1\u10e5\u10dd\u10da\u10d8\u10dd\u10d4\u10d1": 2471,
  "\u10df\u10d9\u10d7": 2472,
  "\u2581animals": 2473,
  "\u2581seems": 2474,
  "\u2581\u10db\u10d7\u10d0\u10d5\u10d0\u10e0\u10d8": 2475,
  "\u2581develop": 2476,
  "\u2581\u10e7\u10dd\u10e4\u10d8\u10da\u10d8\u10e7\u10dd": 2477,
  "\u2581carry": 2478,
  "\u2581families": 2479,
  "\u2581ma": 2480,
  "\u2581pressure": 2481,
  "\u2581proved": 2482,
  "\u25818,": 2483,
  "\u2581\u10d8\u10d4\u10f0\u10dd\u10d5\u10d0\u10e1\u10d0\u10d3\u10db\u10d8": 2484,
  "\u2581creation": 2485,
  "\u2581millions": 2486,
  "\u2581town": 2487,
  "\u2581\u10e1\u10d0\u10e3\u10d1\u10d0\u10e0\u10d8": 2488,
  "\u10d3\u10dd\u10db": 2489,
  "\u2581type": 2490,
  "\u2581\u10d8\u10ea\u10dd\u10d3\u10d0": 2491,
  "\u10e4\u10e3": 2492,
  "\u2581angels": 2493,
  "\u2581praise": 2494,
  "\u2581\u10d8\u10db\u10d8\u10e1\u10d0\u10d7\u10d5\u10d8\u10e1": 2495,
  "\u10e0\u10dd\u10e1": 2496,
  "\u2581\u10e1\u10d0\u10e2\u10d0\u10dc\u10d8\u10e1": 2497,
  "\u2581lands": 2498,
  "ba": 2499,
  "\u2581\u10e0\u10ec\u10db\u10d4\u10dc\u10d0\u10e1": 2500,
  "\u2581About": 2501,
  "\u2581decided": 2502,
  "\u10ea\u10d8\u10d0": 2503,
  "\u2581\u10db\u10dd\u10e1": 2504,
  "\u2581Awake": 2505,
  "\u2581\u10d2\u10d0\u10db\u10dd\u10db\u10d3\u10d8\u10dc\u10d0\u10e0\u10d4": 2506,
  "\u2581\u10d3\u10e6\u10d4\u10e1\u10d0\u10ea": 2507,
  "\u2581branch": 2508,
  "\u2581\u10d0\u10db\u10d0\u10dc": 2509,
  "\u2581\u10d2\u10df\u10d7\u10e4\u10d9\u10d7": 2510,
  "\u2581\u10df\u10da\u10d5\u10d4": 2511,
  "\u2581attend": 2512,
  "\u2581\u10e1\u10e2\u10d0\u10e2\u10d8\u10d0": 2513,
  "\u2581\u10ec\u10d0\u10db": 2514,
  "\u2581chapter": 2515,
  "\u2581worldwide": 2516,
  "\u2581\u10db\u10d0\u10dc\u10eb\u10d8\u10da\u10d6\u10d4": 2517,
  "\u10d5\u10da\u10d8\u10e1": 2518,
  "\u2581en": 2519,
  "\u2581wonder": 2520,
  "\u10de\u10d0\u10dc": 2521,
  "\u2581\u10e0\u10ec": 2522,
  "\u2581\u10d9": 2523,
  "\u2581\u10d9\u10d0\u10dc\u10dd\u10dc\u10d8": 2524,
  "\u2581\u10db\u10d4\u10e3\u10e6\u10da\u10d4": 2525,
  "\u10d4\u10d1\u10dd\u10d3\u10dc\u10d4\u10dc": 2526,
  "\u2581flesh": 2527,
  "\u2581wait": 2528,
  "\u258134": 2529,
  "\u2581learning": 2530,
  "\u2581record": 2531,
  "\u2581\u10e6\u10db\u10d4\u10e0\u10d7\u10d7\u10d0\u10dc": 2532,
  "os": 2533,
  "red": 2534,
  "\u2581promised": 2535,
  "\u10d0\u10e0\u10e1": 2536,
  "\u10de\u10d0\u10e2": 2537,
  "\u2581\u10db\u10d8\u10d8\u10e6\u10dd": 2538,
  "\u2581\u10e1\u10ee\u10d5\u10d4\u10d1\u10d8": 2539,
  "\u2581\u10db\u10dd\u10ec\u10db\u10d4\u10d7\u10d0": 2540,
  "land": 2541,
  "\u10eb\u10da\u10d8\u10d4\u10e0": 2542,
  "\u2581onto": 2543,
  "\u2581\u10d7\u10d0\u10e7\u10d5\u10d0\u10dc\u10d8\u10e1\u10db\u10ea\u10d4\u10db\u10da\u10dd\u10d1": 2544,
  "\u2581\u10ee\u10d4": 2545,
  "\u10dc\u10d0\u10d7": 2546,
  "\u2581godly": 2547,
  "\u2581turned": 2548,
  "\u2581speech": 2549,
  "\u10d5\u10d8\u10d0": 2550,
  "ec": 2551,
  "\u2581\u10d7\u10db\u10d0\u10db": 2552,
  "\u10d4\u10d1\u10dd": 2553,
  "\u2581experienced": 2554,
  "\u2581English": 2555,
  "\u2581\u10e8\u10d4\u10db\u10d3\u10d4\u10d2\u10d8": 2556,
  "\u2581harmony": 2557,
  "\u2581Hall": 2558,
  "\u2581appreciation": 2559,
  "\u2581file": 2560,
  "\u2581laws": 2561,
  "We": 2562,
  "\u10d9\u10da\u10d0": 2563,
  "\u2581\u10d6\u10d4\u10ea\u10d0\u10e8\u10d8": 2564,
  "\u2581\u10ee\u10dc\u10d8\u10e1": 2565,
  "\u258115:": 2566,
  "\u2581\u10d1\u10d8\u10d1\u10da\u10d8\u10d0\u10e1": 2567,
  "\u2581\u10db\u10d0\u10db\u10d8\u10e1": 2568,
  "\u2581Another": 2569,
  "\u2581Brother": 2570,
  "\u2581Love": 2571,
  "\u2581training": 2572,
  "\u2581\u10dc\u10d5\u10d3\u10f2": 2573,
  "\u2581\u10e5\u10d0\u10da\u10d8": 2574,
  "\u2581\u10e1\u10d0\u10ed\u10d8\u10e0\u10dd\u10d0": 2575,
  "son": 2576,
  "\u10df\u10d9\u10d0": 2577,
  "\u2581eight": 2578,
  "\u10d1\u10d4\u10e0": 2579,
  "\u10e3\u10e0\u10d0\u10d3": 2580,
  "\u2581either": 2581,
  "\u2581km": 2582,
  "\u2581rich": 2583,
  "\u2581\u10ee\u10db\u10d0": 2584,
  "\u2581Keep": 2585,
  "\u2581preach": 2586,
  "\u2581\u10d3\u10d0\u10d5\u10d8\u10d7\u10d8": 2587,
  "\u2581\u10d4\u10de": 2588,
  "\u2581di": 2589,
  "men": 2590,
  "\u10dd\u10d1\u10d4\u10dc": 2591,
  "\u2581Later": 2592,
  "\u2581\u10d8\u10db\u10d8\u10d7": 2593,
  "\u2581shown": 2594,
  "ER": 2595,
  "\u10d4\u10d1\u10d4\u10d1\u10d8": 2596,
  "\u2581risk": 2597,
  "\u10f3\u10db\u10d5": 2598,
  "\u2581determined": 2599,
  "po": 2600,
  "\u2581helping": 2601,
  "\u2581r": 2602,
  "\u2581regular": 2603,
  "\u2581\u10e1\u10d8\u10e7\u10d5\u10d0\u10e0\u10e3\u10da\u10e1": 2604,
  "\u2581\u10e5\u10d0\u10d3\u10d0\u10d2\u10d4\u10d1\u10d0": 2605,
  "\u2581believers": 2606,
  "\u2581okay": 2607,
  "\u2581\u10d2\u10de\u10d5\u10db\u10d5": 2608,
  "\u2581\u10db\u10ea\u10ee\u10dd\u10d5\u10e0\u10d4\u10d1\u10d8": 2609,
  "\u2581month": 2610,
  "\u2581sometimes": 2611,
  "\u2581\u10d7\u10d0\u10d5\u10d6\u10d4": 2612,
  "\u2581\u10d1\u10da\u10d0\u10d3\u10f2\u10d4\u10d0\u10de\u10ec": 2613,
  "\u2581\u10d4\u10e0\u10d7\u10d2\u10e3\u10da": 2614,
  "\u2581\u10e8\u10d5\u10d8\u10da\u10d4\u10d1\u10d8": 2615,
  "\u2581\u10d2\u10d0\u10d5\u10d8": 2616,
  "\u2581Z": 2617,
  "\u2581\u10e0\u10d4\u10da\u10d8\u10d2\u10d8\u10e3\u10e0\u10d8": 2618,
  "\u2581\u10ea\u10ee\u10d0\u10d3\u10d8\u10d0": 2619,
  "\u10e5\u10e1\u10d8": 2620,
  "\u2581\u10d8\u10ea\u10d8\u10e1": 2621,
  "\u2581\u10eb\u10db\u10d4\u10d1\u10d8": 2622,
  "\u2581\u10d1\u10d5\u10f1": 2623,
  "\u2581\u10de\u10d8\u10e0\u10d0\u10d3\u10d8": 2624,
  "\u2581\u10d0\u10db\u10d0": 2625,
  "\u2581\u10dd\u10de\u10f2\u10df\u10e0\u10f2": 2626,
  "ber": 2627,
  "\u2581evil": 2628,
  "\u2581mate": 2629,
  "\u2581\u10d2\u10d0\u10e0\u10d9\u10d5\u10d4\u10e3\u10da\u10d8": 2630,
  "\u2581\u10ed": 2631,
  "\u10e2\u10e0": 2632,
  "\u2581\u10db\u10d0\u10e0\u10d0\u10d3\u10d8\u10e3\u10da\u10d8": 2633,
  "\u10d4\u10d1\u10d8\u10e1\u10d2\u10d0\u10dc": 2634,
  "\u2581centuries": 2635,
  "\u2581simple": 2636,
  "\u10e6\u10d5\u10d7\u10d8\u10e1": 2637,
  "\u2581\u10d7\u10d5\u10d8\u10e1": 2638,
  "\u2581appointed": 2639,
  "\u2581foretold": 2640,
  "\u2581\u10e9\u10d0\u10d8": 2641,
  "\u10db\u10d4\u10dc\u10e2": 2642,
  "\u2581concern": 2643,
  "\u2581\u10de\u10dd": 2644,
  "\u258136": 2645,
  "\u2581indeed": 2646,
  "\u2581reasons": 2647,
  "\u2581\u10d1\u10dd\u10da\u10dd\u10db\u10d3\u10d4": 2648,
  "\u2581changes": 2649,
  "\u2581\u10de\u10d8\u10e0": 2650,
  "\u10d9\u10dd\u10dc": 2651,
  "\u2581positive": 2652,
  "\u2581subject": 2653,
  "\u2581Samuel": 2654,
  "\u2581\u10d9\u10f2\u10d3\u10d0\u10e0\u10f2": 2655,
  "\u10d2\u10d0\u10e5": 2656,
  "\u2581freedom": 2657,
  "cy": 2658,
  "\u2581building": 2659,
  "\u2581occasion": 2660,
  "\u2581\u10d2\u10d5\u10d4\u10e0\u10d3\u10d4\u10d1\u10d8": 2661,
  "\u2581\u10e1\u10d8\u10e7\u10d5\u10d0\u10e0\u10e3\u10da\u10d8\u10d7": 2662,
  "\u2581alive": 2663,
  "\u2581\u10d0\u10db\u10d8\u10d7": 2664,
  "\u10d4\u10d1\u10d8\u10e1\u10d0": 2665,
  "\u2581\u10dc\u10d0\u10da\u10d7": 2666,
  "\u2581Before": 2667,
  "\u2581\u10d6\u10e3\u10e1\u10e2\u10d0\u10d3": 2668,
  "\u2581sexual": 2669,
  "\u2581term": 2670,
  "ah": 2671,
  "\u2581Ask": 2672,
  "\u2581accurate": 2673,
  "ni": 2674,
  "\u10d9\u10de": 2675,
  "\u10e7\u10e3\u10e0": 2676,
  "\u2581date": 2677,
  "\u2581neither": 2678,
  "\u10e1\u10e2": 2679,
  "\u258118:": 2680,
  "\u10d1\u10d4\u10da": 2681,
  "\u2581program": 2682,
  "\u2581expression": 2683,
  "\u2581sins": 2684,
  "\u2581convention": 2685,
  "\u2581offered": 2686,
  "\u2581practice": 2687,
  "\u2581\u10e8\u10d4\u10d2\u10d8\u10eb\u10da\u10d8\u10d0": 2688,
  "\u2581\u10e4\u10d0\u10e0": 2689,
  "cu": 2690,
  "\u10d3\u10d4\u10d5": 2691,
  "\u10e2\u10dd\u10e0\u10d8": 2692,
  "\u2581Really": 2693,
  "\u2581include": 2694,
  "\u2581list": 2695,
  "\u2581\u10d0\u10d3\u10d0\u10db\u10d8\u10d0\u10dc\u10d4\u10d1\u10d8\u10e1": 2696,
  "\u2581\u10e1\u10d8\u10e7\u10d5\u10d0\u10e0\u10e3\u10da\u10d8\u10e1": 2697,
  "\u2581raised": 2698,
  "\u2581\u10d1\u10dd": 2699,
  "\u2581\u10e1\u10d8\u10e2\u10e7\u10d5\u10d4\u10d1\u10d8\u10d7": 2700,
  "\u2581\u10d1\u10d4\u10d3\u10dc\u10d8\u10d4\u10e0\u10d8": 2701,
  "\u2581\u10dc\u10d4\u10d1\u10d8\u10e1\u10db\u10d8\u10d4\u10e0": 2702,
  "\u2581allowed": 2703,
  "\u2581caused": 2704,
  "\u2581anger": 2705,
  "\u2581\u10db\u10d0\u10e8": 2706,
  "\u2581covenant": 2707,
  "\u2581languages": 2708,
  "\u25812,": 2709,
  "\u2581Bethel": 2710,
  "\u2581More": 2711,
  "\u2581picture": 2712,
  "\u2581\u10e1\u10ec\u10d0\u10d5\u10da\u10d0": 2713,
  "Y": 2714,
  "\u2581precious": 2715,
  "\u2581usually": 2716,
  "\u2581\u10d3\u10d4\u10d3\u10d0\u10db\u10d8\u10ec\u10d8\u10e1": 2717,
  "\u10d5\u10d0\u10e0\u10d8": 2718,
  "\u2581realize": 2719,
  "\u2581\u10e0\u10e3": 2720,
  "\u2581\u10e3\u10e4\u10d0\u10da\u10d8": 2721,
  "\u2581\u10ed\u10d4\u10e8\u10db\u10d0\u10e0\u10d8\u10e2": 2722,
  "ga": 2723,
  "\u10e0\u10f2\u10de": 2724,
  "\u2581state": 2725,
  "\u10d0\u10d5\u10d3\u10d0": 2726,
  "\u10d2\u10d0\u10da": 2727,
  "\u2581reports": 2728,
  "\u2581York": 2729,
  "\u2581drink": 2730,
  "\u2581expect": 2731,
  "\u2581music": 2732,
  "\u2581II": 2733,
  "\u2581\u10db\u10d0\u10d7\u10d7\u10d0\u10dc": 2734,
  "\u2581responsibility": 2735,
  "\u10e2\u10e3": 2736,
  "\u2581plus": 2737,
  "\u2581\u10e1\u10d0\u10db\u10e5\u10d0\u10d3\u10d0\u10d2\u10d4\u10d1\u10da\u10dd": 2738,
  "\u2581Egypt": 2739,
  "\u2581results": 2740,
  "\u2581\u10d1\u10d0\u10d5\u10e8\u10d5\u10d4\u10d1\u10d8": 2741,
  "\u2581\u10e1\u10d8\u10e2\u10e7\u10d5\u10d4\u10d1\u10e1": 2742,
  "\u2581cut": 2743,
  "\u2581ransom": 2744,
  "\u2581\u10db\u10d8\u10d6\u10d0\u10dc\u10d8": 2745,
  "\u2581\u10d4\u10dc\u10d0": 2746,
  "\u2581\u10d9\u10d4": 2747,
  "\u2581\u10ea\u10dd\u10da": 2748,
  "\u2581returned": 2749,
  "\u2581\u10db\u10d8\u10d4": 2750,
  "\u2581\u10e3\u10d3\u10d8\u10d3\u10d4\u10e1\u10d8": 2751,
  "\u2581\u10f2\u10d2\u10d0": 2752,
  "ag": 2753,
  "\u2581daily": 2754,
  "\u2581\u10e1\u10d4": 2755,
  "\u2581interested": 2756,
  "\u2581\u10dd\u10ef\u10d0\u10ee\u10e8\u10d8": 2757,
  "\u2581\u10ec\u10d4\u10e0\u10d3\u10d0": 2758,
  "\u10e9\u10d0": 2759,
  "\u2581\u10e1\u10d8\u10e1\u10ee\u10da\u10d8\u10e1": 2760,
  "\u10d8\u10d4\u10e0": 2761,
  "\u2581\u10df\u10e1\u10db": 2762,
  "\u2581\u10e3\u10d9\u10d0\u10dc": 2763,
  "\u258116:": 2764,
  "\u2581crowd": 2765,
  "\u2581psalmist": 2766,
  "\u2581won": 2767,
  "\u2581\u10e8\u10d4\u10ea\u10d3\u10dd\u10db\u10d0": 2768,
  "\u2581\u10dc\u10d4": 2769,
  "\u2581\u10e1\u10e2": 2770,
  "\u2581\u10db\u10dd\u10d2": 2771,
  "\u2581\u10e1\u10d0\u10ee\u10d8\u10d7": 2772,
  "\u2581integrity": 2773,
  "\u2581step": 2774,
  "\u2581\u10e0\u10d7\u10e3\u10da\u10d8": 2775,
  "\u2581\u10d0\u10e0\u10d0\u10e1\u10ec\u10dd\u10e0\u10d8": 2776,
  "\u2581\u10ec\u10d8\u10d2\u10dc\u10e8\u10d8": 2777,
  "\u2581Africa": 2778,
  "\u2581break": 2779,
  "\u2581sleep": 2780,
  "\u2581success": 2781,
  "\u2581\u10e9\u10d4\u10db\u10d7\u10d5\u10d8\u10e1": 2782,
  "\u2581baby": 2783,
  "\u2581condition": 2784,
  "out": 2785,
  "\u2581\u10db\u10e1\u10d0\u10ee\u10e3\u10e0\u10d4\u10d1\u10d8": 2786,
  "\u10d4\u10db": 2787,
  "\u10d8\u10e0\u10d5": 2788,
  "\u10d4\u10ea\u10d8": 2789,
  "\u2581\u10d8\u10db\u10d3\u10d4\u10dc\u10d0\u10d3": 2790,
  "\u2581discipline": 2791,
  "we": 2792,
  "\u2581\u10d5\u10d4\u10e0\u10ea": 2793,
  "\u10e1\u10e2\u10d8": 2794,
  "\u2581third": 2795,
  "vo": 2796,
  "\u2581\u10db\u10d0\u10e0\u10d7": 2797,
  "\u10ee\u10d0\u10e2": 2798,
  "\u2581\u10d7\u10d5\u10d8\u10d7": 2799,
  "\u2581command": 2800,
  "\u2581\u10e1\u10e3\u10da\u10d8\u10d7": 2801,
  "\u2581IN": 2802,
  "\u2581throughout": 2803,
  "\u2581\u10db\u10d0\u10d7\u10d2\u10d0\u10dc\u10d8": 2804,
  "\u10d0\u10e0\u10d4": 2805,
  "\u10d5\u10d4\u10e0": 2806,
  "\u2581\u10d7\u10df\u10d9\u10d0\u10e5": 2807,
  "ward": 2808,
  "\u2581\u10db\u10f2\u10d6\u10d5\u10e5": 2809,
  "\u2581\u10f0": 2810,
  "\u2581Was": 2811,
  "\u2581regularly": 2812,
  "\u2581\u10d0\u10db\u10d0\u10d5\u10d4": 2813,
  "\u2581\u10e1\u10d8\u10ee\u10d0\u10e0\u10e3\u10da\u10d8\u10d7": 2814,
  "\u2581goes": 2815,
  "\u2581guard": 2816,
  "\u10d7\u10d4": 2817,
  "\u2581practical": 2818,
  "\u2581social": 2819,
  "que": 2820,
  "\u10d4\u10e4": 2821,
  "\u2581outside": 2822,
  "\u2581\u10e8\u10d4\u10d3\u10d4\u10d2\u10d8": 2823,
  "ities": 2824,
  "\u2581\u10de\u10d0\u10e2\u10d8\u10d5\u10d8": 2825,
  "\u2581choice": 2826,
  "\u2581walking": 2827,
  "\u2581worked": 2828,
  "\u10e9\u10d8\u10dc": 2829,
  "\u2581\u10e2\u10d0": 2830,
  "\u2581\u10e9\u10d5\u10d4\u10e3\u10da\u10d4\u10d1\u10e0\u10d8\u10d5": 2831,
  "\u10d0\u10e5": 2832,
  "ns": 2833,
  "\u258145": 2834,
  "\u2581feeling": 2835,
  "\u2581sex": 2836,
  "\u10dc\u10e2": 2837,
  "\u2581watch": 2838,
  "\u2581\u10d1\u10d4\u10d5\u10e0\u10e1": 2839,
  "\u2581\u10e1\u10d0\u10db\u10ee\u10e0\u10d4\u10d7": 2840,
  "\u2581Take": 2841,
  "\u2581baptism": 2842,
  "\u10d7\u10ec": 2843,
  "\u2581Europe": 2844,
  "\u2581\u10e4\u10f2\u10d2\u10d5\u10d9": 2845,
  "\u2581late": 2846,
  "\u2581\u10dc\u10d4\u10d1\u10d8\u10e1": 2847,
  "\u10d2\u10d5\u10d4": 2848,
  "\u10d7\u10da": 2849,
  "\u2581provides": 2850,
  "\u2581\u10e8\u10d5\u10d8\u10da\u10d8": 2851,
  "\u2581Moreover": 2852,
  "\u2581secret": 2853,
  "\u2581\u10d0\u10e0\u10e1\u10d4\u10d1\u10e3\u10da\u10d8": 2854,
  "\u2581focus": 2855,
  "\u2581\u10de\u10da\u10e3\u10e1": 2856,
  "He": 2857,
  "ized": 2858,
  "les": 2859,
  "\u10dc\u10dd\u10e1": 2860,
  "\u2581bear": 2861,
  "\u2581tells": 2862,
  "\u2581destruction": 2863,
  "\u2581parts": 2864,
  "\u2581\u10f0\u10d0": 2865,
  "\u10d0\u10da\u10e3\u10e0\u10d8": 2866,
  "\u10e2\u10dd\u10d5\u10d4\u10d1": 2867,
  "\u2581Perhaps": 2868,
  "\u2581former": 2869,
  "\u2581\u10d6\u10d4\u10ea\u10d8\u10d4\u10e0\u10d8": 2870,
  "\u2581\u10db\u10eb\u10d8\u10db\u10d4": 2871,
  "\u10d6\u10d4\u10d0": 2872,
  "\u10ee\u10e1\u10dc\u10d0": 2873,
  "\u2581\u10d3\u10e0\u10dd\u10d8\u10d7": 2874,
  "\u2581\u10d7\u10d5\u10d8\u10d7\u10dd\u10dc": 2875,
  "\u2581\u10de\u10e0\u10dd\u10d1\u10da\u10d4\u10db\u10d0": 2876,
  "\u10ed\u10d4": 2877,
  "\u258117:": 2878,
  "\u2581earthly": 2879,
  "\u2581\u10d9\u10d0\u10dc": 2880,
  "\u2581beginning": 2881,
  "\u2581\u10d8\u10d7\u10e5\u10d5\u10d0\u10e1": 2882,
  "\u2581PAGE": 2883,
  "\u2581\u10d2\u10d0\u10d5\u10da\u10d4\u10dc\u10d0\u10e1": 2884,
  "\u2581\u10d3\u10e6\u10d4\u10d4\u10d1\u10e8\u10d8": 2885,
  "\u2581\u10dc\u10d0\u10df": 2886,
  "\u10e9\u10e3": 2887,
  "\u2581fulfillment": 2888,
  "\u2581\u10d1\u10d8\u10d1\u10da\u10d8\u10d8\u10d3\u10d0\u10dc": 2889,
  "\u2581individual": 2890,
  "led": 2891,
  "\u2581Over": 2892,
  "\u2581added": 2893,
  "\u2581failed": 2894,
  "\u2581hurt": 2895,
  "\u10d2\u10e0\u10eb\u10d4\u10da": 2896,
  "\u10d4\u10d1\u10d4\u10d1\u10e1": 2897,
  "\u2581\u10e0": 2898,
  "\u2581\u10e1\u10d0\u10d1\u10dd\u10da\u10dd\u10dd\u10d3": 2899,
  "\u10e0\u10d0\u10e1": 2900,
  "\u2581actions": 2901,
  "\u2581lack": 2902,
  "\u2581\u2019,": 2903,
  "ize": 2904,
  "\u10e3\u10d0": 2905,
  "\u2581justice": 2906,
  "\u10db\u10d0\u10dc": 2907,
  "dy": 2908,
  "\u2581\u10d6\u10d4\u10db\u10dd\u10d7": 2909,
  "\u10da\u10dd\u10d1\u10d0": 2910,
  "\u2581Na": 2911,
  "\u2581youths": 2912,
  "\u2581\u10e1\u10d8\u10db": 2913,
  "\u2581\u10e9\u10d0\u10d5": 2914,
  "\u2581Though": 2915,
  "\u2581\u10d8\u10db\u10d0\u10d5\u10d4": 2916,
  "ious": 2917,
  "ris": 2918,
  "\u2581Saul": 2919,
  "\u2581quickly": 2920,
  "\u2581\u10db\u10e3": 2921,
  "ach": 2922,
  "\u2581Therefore": 2923,
  "\u2581\u10de\u10e0\u10dd": 2924,
  "\u2581\u10df\u10e7": 2925,
  "\u10dc\u10d3\u10dd": 2926,
  "\u258118.": 2927,
  "\u2581whatever": 2928,
  "\u10e1\u10d2\u10d0": 2929,
  "\u2581addition": 2930,
  "\u2581fall": 2931,
  "\u2581\u10e1\u10d0\u10d9\u10d8\u10d7\u10ee\u10d8": 2932,
  "\u10d0\u10e2\u10d8": 2933,
  "\u2581\u10d3\u10d0\u10d5\u10d0\u10da\u10d4\u10d1\u10d0": 2934,
  "\u2581\u2019?": 2935,
  "\u2581encouraged": 2936,
  "\u2581save": 2937,
  "\u2581\u10ec\u10da\u10d4\u10d1\u10d8\u10e1": 2938,
  "\u10e3\u10e8\u10d0": 2939,
  "\u2581\u10d2\u10d0\u10dc\u10e1\u10d0\u10d9\u10e3\u10d7\u10e0\u10d4\u10d1\u10e3\u10da\u10d8": 2940,
  "\u2581\u10d4\u10d5\u10dc": 2941,
  "\u2581\u10e0\u10d0\u10dd\u10d3\u10d4\u10dc\u10dd\u10d1\u10d0": 2942,
  "AN": 2943,
  "ring": 2944,
  "\u2581education": 2945,
  "\u2581\u10e7\u10e3\u10e0\u10d0\u10d3\u10e6\u10d4\u10d1\u10d0\u10e1": 2946,
  "\u10da\u10dd\u10e1": 2947,
  "\u10e2\u10d4\u10ee": 2948,
  "\u2581Babylon": 2949,
  "\u2581forget": 2950,
  "\u2581original": 2951,
  "\u2581air": 2952,
  "\u2581\u10d3\u10d4\u10d3\u10d0\u10db\u10d8\u10ec\u10d0": 2953,
  "\u2581\u10db\u10dd\u10d5\u10d8": 2954,
  "\u2581beyond": 2955,
  "\u10d0\u10d9": 2956,
  "\u2581\u10d0\u10d5": 2957,
  "\u2581\u10d2\u10e3\u10da": 2958,
  "\u2581\u10d9\u10dd\u10e8\u10d9\u10d8\u10e1": 2959,
  "ite": 2960,
  "\u10dc\u10dd\u10d7": 2961,
  "\u10e0\u10d4\u10e1": 2962,
  "\u2581completely": 2963,
  "\u2581\u10e1\u10d8\u10ee\u10d0\u10e0\u10e3\u10da\u10d8": 2964,
  "\u2581Others": 2965,
  "\u2581\u10d7\u10d8\u10d7\u10e5\u10dd\u10e1": 2966,
  "\u10d4\u10e1\u10d8": 2967,
  "\u10d1\u10e3": 2968,
  "\u2581\u10d0\u10d3\u10d5\u10d8\u10da\u10d0\u10d3": 2969,
  "\u2581\u10e1\u10e3": 2970,
  "\u2581member": 2971,
  "\u2581\u10d7\u10d0\u10dc\u10d0": 2972,
  "\u2581\u10d7\u10d0\u10dc\u10d0\u10db\u10d4\u10d3\u10e0\u10dd\u10d5\u10d4": 2973,
  "It": 2974,
  "\u2581guidance": 2975,
  "\u2581favor": 2976,
  "\u2581proper": 2977,
  "\u2581strengthen": 2978,
  "tro": 2979,
  "\u258135": 2980,
  "\u10e1\u10e3\u10da": 2981,
  "\u2581necessary": 2982,
  "\u2581\u10e8\u10d4\u10e1\u10e0\u10e3\u10da\u10d4\u10d1\u10d0": 2983,
  "\u2581inside": 2984,
  "\u2581\u10e3\u10ee\u10e3\u10ea\u10d4\u10e1\u10d4\u10d1\u10d8": 2985,
  "\u2581greatest": 2986,
  "\u2581ahead": 2987,
  "\u2581Right": 2988,
  "\u2581Us": 2989,
  "\u2581\u10de\u10d8\u10e0\u10d5\u10d4\u10da\u10d0\u10d3": 2990,
  "\u2581\u10ec\u10d4\u10d5\u10e0\u10d4\u10d1\u10d8": 2991,
  "\u2581arrived": 2992,
  "\u2581challenge": 2993,
  "\u2581Name": 2994,
  "\u2581event": 2995,
  "\u2581paradise": 2996,
  "\u2581\u10d3\u10d8": 2997,
  "\u2581\u10d9\u10f2\u10d5\u10e0\u10f2": 2998,
  "bi": 2999,
  "bo": 3000,
  "\u10e0\u10dd\u10db": 3001,
  "\u2581literature": 3002,
  "\u2581\u10d5\u10d4\u10d7\u10dc": 3003,
  "\u2581\u10e0\u10e9\u10d4\u10d5\u10d4\u10d1\u10d8": 3004,
  "\u2581\u10e0\u10f2\u10f1\u10d7": 3005,
  "ible": 3006,
  "\u2581disease": 3007,
  "\u2581invited": 3008,
  "\u2581~": 3009,
  "\u10d0\u10d6": 3010,
  "\u10dc\u10d7\u10d9": 3011,
  "\u2581assignment": 3012,
  "\u2581explain": 3013,
  "\u2581studying": 3014,
  "\u2581\u10d2\u10d0\u10d3\u10d0\u10e2\u10d0\u10dc\u10d0": 3015,
  "ub": 3016,
  "\u2581\u10de\u10f2": 3017,
  "\u2581hour": 3018,
  "\u2581showing": 3019,
  "\u10dc\u10d3\u10d0": 3020,
  "\u10dc\u10d8\u10d7": 3021,
  "\u2581\u10ec\u10d4\u10e0\u10d8\u10da\u10d8": 3022,
  "14": 3023,
  "\u2581\u10d5\u10d4\u10dc\u10d0": 3024,
  "\u2581\u10e1\u10e0\u10e3\u10da\u10d8\u10d0\u10d3": 3025,
  "\u10d4\u10da\u10db\u10d0": 3026,
  "\u2581\u10e8\u10d4\u10e3\u10eb\u10da\u10d4\u10d1\u10d4\u10da\u10d8\u10d0": 3027,
  "In": 3028,
  "\u2581\u10d3\u10e0\u10dd\u10e8\u10d8": 3029,
  "\u2581\u10d4\u10e0\u10d8": 3030,
  "\u2581\u10db\u10d8\u10d6\u10dc\u10d8\u10d7": 3031,
  "\u2581la": 3032,
  "\u2581front": 3033,
  "\u2581humble": 3034,
  "\u2581political": 3035,
  "\u2581spend": 3036,
  "\u2581\u10eb\u10da\u10d8\u10d4\u10e0": 3037,
  "\u2581\u10db\u10d0\u10e0\u10d0\u10d3\u10d8\u10e3\u10da\u10d0\u10d3": 3038,
  "\u2581\u10e4\u10d4\u10e0": 3039,
  "\u10dd\u10d3\u10d8": 3040,
  "\u2581basis": 3041,
  "\u2581\u10d9\u10dd\u10dc": 3042,
  "\u2581\u10e2\u10d8": 3043,
  "\u10d8\u10ea\u10d8": 3044,
  "\u10eb\u10e6\u10d5": 3045,
  "\u2581express": 3046,
  "\u2581personality": 3047,
  "\u2581spent": 3048,
  "\u2581vision": 3049,
  "\u2581\u10d2\u10d0\u10db\u10dd\u10db": 3050,
  "\u2581\u10dc\u10d4\u10d1\u10d8\u10e1\u10db\u10d8\u10d4\u10e0\u10d8": 3051,
  "\u2581\u10de\u10d4\u10e0\u10d8\u10dd\u10d3\u10e8\u10d8": 3052,
  "\u2581\u10d0\u10d9": 3053,
  "\u2581\u10e1\u10d0\u10d6\u10dd\u10d2\u10d0\u10d3\u10dd\u10d4\u10d1\u10d0": 3054,
  "\u2581\u10e1\u10d0\u10e1\u10d8\u10d0\u10db\u10dd\u10d5\u10dc\u10dd": 3055,
  "\u10d8\u10e8\u10dc": 3056,
  "\u2581\u10db\u10d3\u10d2\u10dd\u10db\u10d0\u10e0\u10d4\u10dd\u10d1\u10d0\u10e8\u10d8": 3057,
  "\u2581\u10e4\u10d4\u10ee": 3058,
  "\u2581becoming": 3059,
  "\u2581\u10dc\u10d0\u10d8": 3060,
  "\u2581\u10ea\u10dc\u10dd\u10d1\u10d0\u10e1": 3061,
  "\u2581nature": 3062,
  "\u2581progress": 3063,
  "\u2581salvation": 3064,
  "\u2581\u10eb\u10d5\u10d4\u10da": 3065,
  "\u2581\u10f3\u10d0": 3066,
  "\u25819,": 3067,
  "\u2581\u10e1\u10e5\u10dd\u10da\u10d8": 3068,
  "\u10d0\u10ee\u10d0\u10da\u10d8": 3069,
  "\u2581\u10db\u10d0\u10db\u10d0\u10d9\u10d0\u10ea\u10d8": 3070,
  "\u10d5\u10dc\u10d7\u10d5": 3071,
  "\u2581areas": 3072,
  "\u2581obey": 3073,
  "\u10da\u10d8\u10d7": 3074,
  "\u2581beliefs": 3075,
  "\u2581tribulation": 3076,
  "\u2581\u10d1\u10e3": 3077,
  "\u2581medical": 3078,
  "\u2581\u10db\u10dd\u10d2\u10d5": 3079,
  "like": 3080,
  "\u2581Society": 3081,
  "\u2581lose": 3082,
  "\u2581\u10db\u10d4\u10ea": 3083,
  "\u2581built": 3084,
  "OR": 3085,
  "\u2581\u10db\u10d8\u10d0": 3086,
  "\u2581\u10e0\u10d0\u10d8\u10db\u10d4": 3087,
  "\u2581Her": 3088,
  "ke": 3089,
  "\u10d9\u10d8\u10d7\u10ee\u10d4": 3090,
  "\u25815,": 3091,
  "\u2581table": 3092,
  "\u10e2\u10e3\u10e0": 3093,
  "\u10ec\u10d4": 3094,
  "\u2581conditions": 3095,
  "\u2581eye": 3096,
  "\u2581\u10d2\u10d0\u10d3\u10d0\u10d5": 3097,
  "\u2581\u10dd\u10da": 3098,
  "\u2581\u10e8\u10d4\u10e1\u10d0": 3099,
  "\u2581\u10dc\u10d5\u10db\u10d0": 3100,
  "\u2581\u10e8\u10d8\u10e8\u10d8": 3101,
  "for": 3102,
  "\u10e7\u10d8": 3103,
  "\u2581\u10db\u10e2\u10d9\u10d8\u10ea\u10d4": 3104,
  "\u2581\u10ec\u10db": 3105,
  "\u2581\u10eb\u10db\u10d4\u10d1\u10e1": 3106,
  "\u2581elder": 3107,
  "\u2581\u10de\u10d4\u10e2\u10e0\u10d4": 3108,
  "\u2581articles": 3109,
  "\u2581\u10d0\u10d7": 3110,
  "\u2581\u10db\u10dd\u10db\u10d0\u10d5\u10d0\u10da\u10d8": 3111,
  "\u2581\u10e0\u10dd\u10db\u10d4\u10da\u10d8\u10db\u10d4": 3112,
  "\u25814,": 3113,
  "\u2581trials": 3114,
  "\u2581\u10d2\u10d0\u10d2\u10d4\u10d1\u10d8\u10d7": 3115,
  "\u2581\u10d9\u10d8\u10d7\u10ee\u10d5\u10d4\u10d1\u10d8": 3116,
  "\u10d4\u10d1\u10d8\u10dc\u10d0\u10d7": 3117,
  "\u2581\u10e0\u10d4\u10da\u10d8\u10d2\u10d8\u10d0": 3118,
  "\u2581filled": 3119,
  "\u2581goal": 3120,
  "\u2581\u10e6\u10d5\u10d7\u10d8\u10e1\u10d2\u10d0\u10dc": 3121,
  "\u10dd\u10d1\u10d3\u10dc\u10d4\u10dc": 3122,
  "\u2581followed": 3123,
  "\u10e9\u10d8": 3124,
  "\u2581\u10d3\u10e6\u10d4\u10db\u10d3\u10d4": 3125,
  "\u10eb\u10d0\u10da": 3126,
  "\u2581request": 3127,
  "\u2581\u10d4\u10d6": 3128,
  "\u25816,": 3129,
  "\u2581copy": 3130,
  "\u2581traveling": 3131,
  "\u10d5\u10e0\u10f2": 3132,
  "\u10d9\u10d0\u10e0\u10d2": 3133,
  "\u2581Remember": 3134,
  "\u2581enjoyed": 3135,
  "\u2581prevent": 3136,
  "nt": 3137,
  "\u10d4\u10d1\u10d0\u10e8\u10d8": 3138,
  "\u10e2\u10e1": 3139,
  "\u2581eventually": 3140,
  "\".": 3141,
  "\u2581Ephesians": 3142,
  "\u2581\u10d0\u10ee\u10da\u10dd\u10e1": 3143,
  "\u2581court": 3144,
  "\u2581\u10e3\u10e0\u10d7\u10d8\u10d4\u10e0\u10d7\u10dd\u10d1\u10d8\u10e1": 3145,
  "\u258190": 3146,
  "\u2581image": 3147,
  "\u2581knowing": 3148,
  "\u2581\u10d0\u10d3\u10d2\u10d8\u10da\u10d6\u10d4": 3149,
  "\u2581\u10e0\u10d0\u10db\u10d3\u10d4\u10dc\u10d8": 3150,
  "\u2581\u10db\u10d4\u10e1\u10d0\u10db\u10d4": 3151,
  "\u2581\u10e0\u10d8\u10ea\u10ee\u10d5": 3152,
  "\u2581\u10e3\u10d9\u10d4\u10d7": 3153,
  "\u10db\u10dd\u10d5": 3154,
  "\u2581benefits": 3155,
  "\u2581check": 3156,
  "\u2581\u10e3\u10e4\u10da\u10d4\u10d1": 3157,
  "per": 3158,
  "\u10d4\u10e3\u10da\u10d8": 3159,
  "\u10e4\u10e0\u10d7": 3160,
  "\u2581\u10d3\u10d0\u10ea\u10d5\u10d0": 3161,
  "\u2581\u10d4\u10e5\u10d5\u10e1\u10d8": 3162,
  "\u2581final": 3163,
  "\u2581Nevertheless": 3164,
  "\u2581meant": 3165,
  "\u2581\u10dd\u10de\u10d5\u10d4\u10d7": 3166,
  "\u2581\u10e8\u10e3\u10d0": 3167,
  "\u10e1\u10d0\u10e1": 3168,
  "\u2581Soon": 3169,
  "\u2581endure": 3170,
  "ab": 3171,
  "ard": 3172,
  "org": 3173,
  "qui": 3174,
  "\u2581Help": 3175,
  "\u2581interests": 3176,
  "\u2581\u10d7\u10d8\u10d7\u10dd\u10d4\u10e3\u10da": 3177,
  "\u2581\u10db\u10d7\u10df\u10da\u10ec": 3178,
  "\u2581\u10e1\u10d8\u10e2\u10e7\u10d5\u10d0\u10e1": 3179,
  "ES": 3180,
  "pa": 3181,
  "\u10de\u10d8": 3182,
  "\u10e1\u10e3": 3183,
  "\u2581prayed": 3184,
  "\u258180": 3185,
  "\u2581quality": 3186,
  "\u2581\u10e3\u10d0\u10db\u10e0\u10d0\u10d5\u10d8": 3187,
  "\u2581police": 3188,
  "\u2581process": 3189,
  "\u2581train": 3190,
  "\u2581\u10e1\u10d8\u10d1\u10e0\u10eb\u10dc\u10d4": 3191,
  "\u10d4\u10d5\u10dc": 3192,
  "\u2581Ex": 3193,
  "\u2581\u10d2\u10d0\u10d5\u10d0": 3194,
  "\u2581Show": 3195,
  "\u2581wish": 3196,
  "\u2581\u10d4\u10e1\u10d0\u10d8\u10d0\u10e1": 3197,
  "\u2581passed": 3198,
  "\u2581security": 3199,
  "\u2581\u10e1\u10d0\u10ee\u10d4\u10da\u10d8\u10d7": 3200,
  "\u2581\u10e1\u10d9\u10dd\u10da\u10d0\u10e8\u10d8": 3201,
  "ten": 3202,
  "\u2581\u10d5\u10d8\u10dc\u10db\u10d4": 3203,
  "\u10d0\u10dc\u10d0": 3204,
  "\u2581agree": 3205,
  "\u10e4\u10dd\u10e0": 3206,
  "\u2581treatment": 3207,
  "\u2581\u10d3\u10d0\u10db\u10dd\u10d9\u10d8\u10d3\u10d4\u10d1\u10e3\u10da\u10d4\u10d1\u10d0": 3208,
  "\u2581\u10db\u10d8\u10e6\u10d4\u10d1\u10e3\u10da\u10d8": 3209,
  "\u2581\u10e0\u10d5\u10d0": 3210,
  "\u2581\u10e9\u10d4\u10db": 3211,
  "du": 3212,
  "\u2581Judah": 3213,
  "\u2581Ro": 3214,
  "\u2581\u10e0\u10d0\u10db\u10d4": 3215,
  "\u2581\u10d1\u10d0\u10e0": 3216,
  "\u2581\u10db\u10dd\u10dc": 3217,
  "\u2581\u10e0\u10d8\u10e1\u10d8": 3218,
  "\u10df\u10e0\u10d0": 3219,
  "\u10f2\u10de": 3220,
  "\u2581Young": 3221,
  "\u2581\u10ec\u10da\u10d4\u10d1\u10e8\u10d8": 3222,
  "\u2581related": 3223,
  "\u2581\u10d2\u10d5\u10d0\u10eb\u10da\u10d4\u10d5\u10e1": 3224,
  "\u10d4\u10d7\u10d8": 3225,
  "\u10da\u10d0\u10d5": 3226,
  "\u2581missionary": 3227,
  "\u2581\u10d7\u10e5\u10d5\u10d4\u10dc\u10d7\u10d5\u10d8\u10e1": 3228,
  "\u2581\u10e1\u10d0\u10db\u10e7\u10d0\u10e0\u10dd\u10e1": 3229,
  "\u2581amount": 3230,
  "\u2581\u10e4\u10d8\u10da": 3231,
  "\u10d5\u10e5": 3232,
  "\u10de\u10ec": 3233,
  "\u2581begin": 3234,
  "\u2581direct": 3235,
  "\u2581doesn": 3236,
  "\u2581\u10d9\u10de\u10d0": 3237,
  "\u2581Church": 3238,
  "\u2581\u10db\u10ee\u10d0\u10e0\u10d4\u10e1": 3239,
  "\u10d1\u10d8\u10d0\u10dc": 3240,
  "\u2581enemies": 3241,
  "\u2581\u10d9\u10e3": 3242,
  "\u2581\u10d1\u10d0\u10d5\u10e8\u10d5\u10d4\u10d1\u10e1": 3243,
  "If": 3244,
  "der": 3245,
  "\u2581Jacob": 3246,
  "\u2581leaders": 3247,
  "\u2581\u10eb\u10d8\u10e0\u10d8\u10d7\u10d0\u10d3\u10d8": 3248,
  "Do": 3249,
  "\u10d5\u10d0\u10e1": 3250,
  "\u2581Holy": 3251,
  "\u2581warning": 3252,
  "\u2581\u10d9\u10d0\u10d5\u10e8\u10d8\u10e0\u10d8": 3253,
  "\u2581\u10e5\u10d5\u10d4\u10e7\u10dc\u10d8\u10d4\u10e0\u10d4\u10d1\u10d0\u10e8\u10d8": 3254,
  "\u10e7\u10d9": 3255,
  "\u10ee\u10d8\u10e1": 3256,
  "\u2581\u10da\u10dd\u10ea\u10d5\u10d0": 3257,
  "\u2581\u10e1\u10d0\u10d4\u10e0\u10d7\u10dd": 3258,
  "\u2581\u10d5\u10d0\u10df\u10d8": 3259,
  "\u2581\u10db\u10d0\u10db\u10d0\u10e1": 3260,
  "\u2581\u10e1\u10d8\u10e1\u10e2\u10d4\u10db\u10d0": 3261,
  "\u2581\u10d0\u10d3\u10d5\u10d8\u10da\u10d8": 3262,
  "\u2581\u10d9\u10f2\u10d8": 3263,
  "\u2581\u10db\u10dd\u10d5\u10d0": 3264,
  "ably": 3265,
  "\u2581empty": 3266,
  "\u2581\u10e0\u10dd": 3267,
  "mi": 3268,
  "\u2581observe": 3269,
  "\u2581\u10db\u10d8\u10d7": 3270,
  "\u2581servant": 3271,
  "\u2581\u10d5\u10d8\u10dc\u10db\u10d4\u10e1": 3272,
  "\u10d0\u10e4": 3273,
  "\u10e0\u10d4\u10d9": 3274,
  "\u2581calls": 3275,
  "\u2581cover": 3276,
  "\u2581groups": 3277,
  "\u2581probably": 3278,
  "\u2581produce": 3279,
  "gan": 3280,
  "\u2581Am": 3281,
  "\u2581\u10f1\u10d0\u10e6\u10f2\u10e0\u10f2": 3282,
  "\u2581quite": 3283,
  "\u2581universe": 3284,
  "50": 3285,
  "\u2581conclusion": 3286,
  "\u2581steps": 3287,
  "\u2581\u10e1\u10d0\u10ee\u10d4\u10da\u10d8\u10e1": 3288,
  "\u2581Ra": 3289,
  "\u2581deeply": 3290,
  "\u2581sick": 3291,
  "\u2581\u10ec\u10d8\u10d2\u10dc": 3292,
  "ster": 3293,
  "\u10d4\u10dc\u10e1": 3294,
  "\u2581sp": 3295,
  "\u10d3\u10d8\u10d0": 3296,
  "\u2581\u10e1\u10d8\u10ea\u10dd\u10ea\u10ee\u10da\u10d4\u10e1": 3297,
  "rate": 3298,
  "\u2581Messiah": 3299,
  "\u2581\u10dc\u10d7\u10e6\u10f2": 3300,
  "\u2581\u10e0\u10dd\u10db\u10d4\u10da\u10e8\u10d8\u10ea": 3301,
  "\u2581firm": 3302,
  "\u10d4\u10da\u10d4\u10d1\u10d8": 3303,
  "\u2581recent": 3304,
  "\u2581\u10db\u10dd\u10d5": 3305,
  "\u2581sacred": 3306,
  "\u2581\u10db\u10d8\u10ee\u10d4\u10d3\u10d5\u10d8\u10d7": 3307,
  "\u2581asking": 3308,
  "\u2581encourage": 3309,
  "\u2581\u10d0\u10d7\u10d8": 3310,
  "\u2581\u10e0\u10d0\u10f1\u10d7": 3311,
  "\u2581\u10e3\u10d0\u10e0\u10d8": 3312,
  "ron": 3313,
  "\u2581Should": 3314,
  "\u2581blessed": 3315,
  "\u2581gone": 3316,
  "\u2581revealed": 3317,
  "\u2581\u10e1\u10d4\u10e0\u10d8\u10dd\u10d6\u10e3\u10da\u10d8": 3318,
  "ping": 3319,
  "\u2581instead": 3320,
  "\u2581seeking": 3321,
  "\u2581warm": 3322,
  "\u2581island": 3323,
  "\u2581\u10d4\u10ee\u10d4\u10d1\u10d0": 3324,
  "\u2581\u10de\u10e0\u10dd\u10ea\u10d4\u10dc\u10e2\u10d8": 3325,
  "gu": 3326,
  "\u2581box": 3327,
  "\u2581pass": 3328,
  "\u00b7": 3329,
  "\u10d1\u10d0\u10d3": 3330,
  "\u2581Only": 3331,
  "\u2581\u10e1\u10d0\u10e5\u10db\u10d4\u10d4\u10d1\u10d8\u10e1": 3332,
  "\u2581\u10ec\u10d8\u10dc\u10d0\u10e1\u10ec\u10d0\u10e0": 3333,
  "\u2581mouth": 3334,
  "\u2581courage": 3335,
  "\u2581\u10db\u10d0\u10e5\u10d5\u10e1": 3336,
  "\u2581\u10de\u10d4\u10e2\u10e0\u10d4\u10e1": 3337,
  "\u2581\u10ea\u10dd\u10da\u10d8": 3338,
  "\u2581mental": 3339,
  "\u2581reflect": 3340,
  "\u2581\u10d7\u10d5\u10d0\u10da\u10e8\u10d8": 3341,
  "\u2581\u10d9\u10d8\u10d3\u10d4\u10ea": 3342,
  "\u10d0\u10d5\u10d0\u10d3": 3343,
  "\u2581cases": 3344,
  "\u2581evening": 3345,
  "\u2581included": 3346,
  "\u2581master": 3347,
  "\u2581protection": 3348,
  "\u2581\u10db\u10dd\u10d3\u10d8\u10d7": 3349,
  "\u2581\u10de\u10d8\u10e0\u10d8\u10e5\u10d8\u10d7": 3350,
  "\u2581\u10d2\u10e3\u10da\u10e8\u10d8": 3351,
  "\u2581\u10ec\u10d4\u10e1\u10d8": 3352,
  "ny": 3353,
  "\u2581\u10d0\u10e6\u10dc\u10d8\u10e8\u10dc\u10d0\u10d5\u10e1": 3354,
  "\u2581\u10ec\u10e7\u10d0\u10da\u10dd\u10d1\u10d8\u10d7": 3355,
  "ki": 3356,
  "\u10e0\u10e3": 3357,
  "\u2581\u10d4\u10da": 3358,
  "\u2581\u10ec\u10d4\u10d5\u10e0\u10d8": 3359,
  "\u10db\u10e1\u10d0\u10ee\u10e3\u10e0\u10d4\u10d1": 3360,
  "\u258138": 3361,
  "\u2581emotional": 3362,
  "ship": 3363,
  "\u2581finally": 3364,
  "\u10f2\u10dc": 3365,
  "\u2581recognize": 3366,
  "\u2581\u10db\u10d0\u10d7\u10d4\u10e1": 3367,
  "\u2581\u10e4\u10e1\u10d0\u10da\u10db\u10e3\u10dc\u10d8\u10e1": 3368,
  "\u10f3\u10f2": 3369,
  "\u2581keeping": 3370,
  "\u2581\u10d7\u10db": 3371,
  "\u2581\u10db\u10e1\u10dd\u10e4\u10da\u10d8\u10dd\u10e1": 3372,
  "\u2581\u10f0\u10dd": 3373,
  "\u2581Watch": 3374,
  "\u2581battle": 3375,
  "\u2581cost": 3376,
  "\u2581flock": 3377,
  "\u2581rejoice": 3378,
  "\u2581\u10d2\u10d0\u10e5\u10d5\u10d7": 3379,
  "\u2581\u10d3\u10d0\u10d5\u10d8\u10d7\u10d8\u10e1": 3380,
  "\u2581newspaper": 3381,
  "\u258119.": 3382,
  "\u2581appear": 3383,
  "\u2581association": 3384,
  "\u2581loss": 3385,
  "\u2581translation": 3386,
  "\u2581examine": 3387,
  "\u2581required": 3388,
  "\u2581affection": 3389,
  "all": 3390,
  "\u2581Sp": 3391,
  "\u2581\u10d3\u10d0\u10d1\u10d0\u10d3\u10d4\u10d1\u10d8\u10e1": 3392,
  "\u2581\u10d3\u10d0\u10db\u10dd\u10d9\u10d8\u10d3\u10d4\u10d1\u10e3\u10da\u10d8": 3393,
  "\u2581\u10df\u10e0\u10f2": 3394,
  "ise": 3395,
  "\u10d5\u10d3\u10dc\u10d4\u10dc": 3396,
  "\u2581fruit": 3397,
  "\u2581\u10d0\u10db\u10d0\u10e8\u10d8": 3398,
  "\u2581\u10d9\u10d8\u10d7\u10ee\u10d5\u10d4\u10d1\u10d6\u10d4": 3399,
  "\u2581Make": 3400,
  "\u2581acts": 3401,
  "\u2581o": 3402,
  "\u2581\u10e3\u10ea\u10ee\u10dd": 3403,
  "ug": 3404,
  "\u10d2\u10d5\u10e0": 3405,
  "\u10d8\u10d0\u10d7": 3406,
  "\u10db\u10dd\u10e5\u10db\u10d4\u10d3": 3407,
  "\u10dc\u10d8\u10e8\u10dc\u10d0": 3408,
  "\u2581hell": 3409,
  "\u2581story": 3410,
  "\u2581\u10d1\u10d5": 3411,
  "\u10dd\u10d5\u10d0\u10dc\u10d8": 3412,
  "\u2581contrast": 3413,
  "\u2581\u10d8\u10e1\u10e0\u10d0\u10d4\u10da\u10d8": 3414,
  "\u2581\u10db\u10e1\u10d0\u10ee\u10e3\u10e0\u10d8": 3415,
  "\u2581desires": 3416,
  "\u2581general": 3417,
  "\u2581presence": 3418,
  "\u2581\u10db\u10e1\u10d0\u10ee\u10e3\u10e0\u10d4\u10d1\u10d0\u10e1": 3419,
  "\u10d0\u10d5\u10d7": 3420,
  "\u10e4\u10d8\u10e1": 3421,
  "\u2581\u10db\u10d8\u10db\u10d3\u10d8\u10dc\u10d0\u10e0\u10d4": 3422,
  "\u2581\u10de": 3423,
  "\u2581Give": 3424,
  "\u2581forward": 3425,
  "\u2581\u10d0\u10db\u10d0\u10d6\u10d4": 3426,
  "\u2581encouragement": 3427,
  "\u2581\u10da\u10d5": 3428,
  "\u2581\u10db\u10e1\u10ee\u10d5\u10d4\u10e0\u10de\u10da\u10d8": 3429,
  "\u2581standing": 3430,
  "\u2581\u10d2\u10d0\u10d5\u10da\u10d4\u10dc\u10d0": 3431,
  "\u2581\u10d7\u10db\u10d0\u10e5": 3432,
  "\u2581\u10e3\u10db\u10d4\u10e2\u10d4\u10e1\u10dd\u10d1\u10d0": 3433,
  "\u10d3\u10d4\u10d1\u10dd\u10d3\u10dc\u10d4\u10dc": 3434,
  "\u10d4\u10d1\u10d8\u10ea": 3435,
  "\u10d9\u10db\u10d0": 3436,
  "time": 3437,
  "\u2581fulfilled": 3438,
  "\u2581imperfect": 3439,
  "\u2581\u10d9\u10d4\u10d7\u10d8\u10da": 3440,
  "\u2581\u10e1\u10d8\u10dc": 3441,
  "\u2581Li": 3442,
  "\u2581Pa": 3443,
  "\u2581South": 3444,
  "\u2581principle": 3445,
  "\u2581realized": 3446,
  "\u2581sort": 3447,
  "\u2581\u10d5\u10d8\u10d2\u10d4\u10d1\u10d7": 3448,
  "\u2581\u10db\u10e8\u10d5\u10d8\u10d3\u10dd\u10d1\u10d0": 3449,
  "\u2581\u10ea\u10dd\u10ea\u10ee\u10d0\u10da\u10d8": 3450,
  "\u10d4\u10e3\u10da": 3451,
  "\u2581\u10d2\u10d0\u10d2\u10d4\u10d1\u10d0": 3452,
  "\u10d7\u10db": 3453,
  "\u10dc\u10d4\u10da\u10d8": 3454,
  "\u2581\u10d3\u10d0\u10d5\u10d8": 3455,
  "\u2581\u10db\u10e5\u10dd\u10dc\u10d3\u10d0": 3456,
  "\u2581\u10d8\u10e1\u10d4\u10d5": 3457,
  "\u2581\u10d9\u10e1": 3458,
  "\u2581\u10e9\u10e0\u10d3\u10d8\u10da\u10dd\u10d4\u10d7": 3459,
  "\u2581create": 3460,
  "\u2581expressed": 3461,
  "\u2581mercy": 3462,
  "\u2581\u10db\u10dd\u10ec\u10d0\u10e4\u10d4\u10d4\u10d1\u10e1": 3463,
  "\u2581\u10e0\u10dd\u10db\u10d4\u10da": 3464,
  "\u2581\u10e2\u10d9\u10d8\u10d5\u10d8\u10da\u10d8": 3465,
  "\u10d0\u10d6\u10d4": 3466,
  "\u10d9\u10d0\u10dc": 3467,
  "nd": 3468,
  "\u10e8\u10d0": 3469,
  "\u2581Mar": 3470,
  "\u2581noted": 3471,
  "\u2581studies": 3472,
  "\u2581treat": 3473,
  "\u2581\u10d8\u10d4\u10f0\u10dd\u10d5\u10d0\u10e1\u10d7\u10d5\u10d8\u10e1": 3474,
  "com": 3475,
  "\u2581prepared": 3476,
  "av": 3477,
  "\u258120.": 3478,
  "\u2581mine": 3479,
  "\u2581\u10d6\u10dd\u10d2\u10d8\u10d4\u10e0\u10d7": 3480,
  "\u2581\u10de\u10d0\u10e1\u10e3\u10ee\u10d4\u10d1\u10d8": 3481,
  "\u2581\u10eb\u10d5\u10d8\u10e0\u10e4\u10d0\u10e1\u10d8": 3482,
  "\u2581Also": 3483,
  "\u2581Rome": 3484,
  "\u2581thank": 3485,
  "\u2581\u10db\u10ee\u10d0\u10e0\u10d4": 3486,
  "\u2581\u10df\u10e0\u10d0\u10d2\u10d0": 3487,
  "world": 3488,
  "\u2581count": 3489,
  "\u2581\u10d2\u10d0\u10db\u10dd\u10d5": 3490,
  "\u2581\u10d3\u10d0\u10ee\u10db\u10d0\u10e0\u10d4\u10d1\u10d8\u10e1": 3491,
  "\u2581\u10dd\u10db\u10d8\u10e1": 3492,
  "\u00f7": 3493,
  "\u10d8\u10e5": 3494,
  "\u10df\u10e0\u10f2": 3495,
  "\u2581fail": 3496,
  "\u2581priest": 3497,
  "\u2581\u10d3\u10d0\u10d5\u10e3": 3498,
  "\u2581\u10de\u10d0\u10d1\u10f2\u10e0\u10d0": 3499,
  "\u2581\u10e1\u10e3\u10da\u10e1": 3500,
  "tu": 3501,
  "\u2581assigned": 3502,
  "\u2581\u10db\u10d0\u10da": 3503,
  "\u2581\u10d0\u10db\u10d8\u10e2\u10dd\u10db\u10d0\u10ea": 3504,
  "\u2581\u10d2\u10d5\u10e5\u10dd\u10dc\u10d3\u10d4\u10e1": 3505,
  "\u2581\u10e5\u10db\u10d0\u10e0\u10d8": 3506,
  "ations": 3507,
  "\u258121.": 3508,
  "\u2581Two": 3509,
  "\u2581weeks": 3510,
  "\u2581\u10d8\u10dd\u10d0\u10dc\u10d4\u10e1": 3511,
  "\u2581\u10db\u10d8\u10e1\u10db\u10d0": 3512,
  "\u10db\u10d5\u10dc": 3513,
  "ev": 3514,
  "ina": 3515,
  "ow": 3516,
  "\u10d3\u10d4\u10da\u10d8": 3517,
  "\u2581\u10d8\u10db\u10d0\u10e8\u10d8": 3518,
  "\u2581\u10d9\u10d0\u10d6\u10d0": 3519,
  "\u10d3\u10d4\u10d1\u10e3\u10da\u10d8": 3520,
  "\u2581nine": 3521,
  "\u2581\u10ea\u10dd\u10d3\u10d5\u10d0": 3522,
  "\u2581\u10d2\u10d0\u10e0": 3523,
  "\u2581Similarly": 3524,
  "\u2581brings": 3525,
  "\u2581cope": 3526,
  "\u2581\u10d0\u10e1\u10d0\u10d9\u10e8\u10d8": 3527,
  "\u2581\u10d4\u10d0\u10da\u10d7": 3528,
  "\u2581\u10d8\u10d4\u10f0\u10dd\u10d5\u10d0\u10e1\u10d7\u10d0\u10dc": 3529,
  "\u2581\u10dd\u10d7\u10ee": 3530,
  "by": 3531,
  "ists": 3532,
  "\u2581attack": 3533,
  "\u2581household": 3534,
  "\u2581sir": 3535,
  "\u10d0\u10d5\u10d4\u10dc": 3536,
  "\u2581Clearly": 3537,
  "\u2581par": 3538,
  "\u2581wine": 3539,
  "\u2581\u10d0\u10d6\u10e0\u10e1": 3540,
  "\u2581\u10d2\u10e0\u10eb\u10dc\u10dd\u10d1": 3541,
  "\u2581\u10e8\u10d4\u10d3\u10d4\u10d2\u10d4\u10d1\u10d8": 3542,
  "\u2581destroyed": 3543,
  "\u2581youth": 3544,
  "\u2581\u10d9\u10f2\u10dc": 3545,
  "\u2581\u10db\u10dd\u10d8\u10e5\u10ea\u10d4": 3546,
  "\u2581document": 3547,
  "\u2581\u10d3\u10d0\u10d4\u10ee\u10db\u10d0\u10e0\u10d0": 3548,
  "\u2581\u10d9\u10d0\u10f1\u10d0": 3549,
  "\u2581\u10db\u10d0\u10d7\u10d6\u10d4": 3550,
  "\u2581developed": 3551,
  "\u10da\u10d5\u10dc": 3552,
  "\u2581Germany": 3553,
  "\u2581goals": 3554,
  "\u2581imp": 3555,
  "\u2581\u10d9\u10e3\u10e0\u10d7\u10ee\u10d4\u10d5\u10d4\u10d1\u10d8": 3556,
  "\u2581\u10db\u10e3\u10ee\u10da\u10d8": 3557,
  "\u2581American": 3558,
  "\u2581homes": 3559,
  "\u2581po": 3560,
  "\u2581\u10d1\u10f2": 3561,
  "\u10dc\u10d4\u10d1\u10d8\u10e1": 3562,
  "\u10e8\u10da\u10d8": 3563,
  "\u10df\u10d5": 3564,
  "\u2581Children": 3565,
  "\u2581immediately": 3566,
  "\u2581\u10ee\u10dd\u10da\u10db\u10d4": 3567,
  "\u10e2\u10d4\u10e0": 3568,
  "\u2581army": 3569,
  "\u2581minutes": 3570,
  "\u2581neighbor": 3571,
  "\u2581travel": 3572,
  "\u2581worth": 3573,
  "line": 3574,
  "mer": 3575,
  "\u10e2\u10d0\u10dc\u10d8": 3576,
  "\u10eb\u10da\u10d4\u10d5": 3577,
  "\u2581200": 3578,
  "\u2581faced": 3579,
  "\u2581stress": 3580,
  "\u2581teacher": 3581,
  "\u2581\u0301": 3582,
  "\u2581\u10e8\u10d4\u10e1": 3583,
  "\u00e9": 3584,
  "\u10ee\u10d4\u10da": 3585,
  "\u2581minus": 3586,
  "\u2581\u10d0\u10e0\u10d0\u10d5\u10d8\u10dc": 3587,
  "\u2581\u10ea\u10dd\u10d3\u10d5\u10d8\u10e1": 3588,
  "\u2581Sea": 3589,
  "\u2581TO": 3590,
  "\u2581established": 3591,
  "\u2581forgive": 3592,
  "\u2581observed": 3593,
  "\u2581safe": 3594,
  "\u2581\u10d9\u10e0\u10d4\u10d1\u10d0": 3595,
  "ified": 3596,
  "\u2581\u10d1\u10d4\u10e0\u10eb\u10dc\u10e3\u10da\u10d8": 3597,
  "\u2581\u10d1\u10ec\u10f3": 3598,
  "\u10d7\u10e5\u10d5\u10d0": 3599,
  "\u2581genuine": 3600,
  "\u2581road": 3601,
  "\u2581society": 3602,
  "\u2581\u10d0\u10e0\u10d0\u10d0": 3603,
  "\u2581\u10e3\u10d9\u10d4\u10d7\u10d4\u10e1\u10d8": 3604,
  "side": 3605,
  "\u2581Each": 3606,
  "\u2581\u10d9\u10d5\u10da\u10d0\u10d5\u10d0\u10ea": 3607,
  "\u2581\u10db\u10d0\u10da\u10d9\u10f2": 3608,
  "\u2581\u10f2\u10dd": 3609,
  "ang": 3610,
  "way": 3611,
  "\u2581bit": 3612,
  "\u2581claim": 3613,
  "\u2581\u10db\u10d4\u10d2\u10dd\u10d1\u10e0\u10d4\u10d1\u10d8": 3614,
  "\u2581\u10e1\u10d8\u10dc\u10d3\u10d8\u10e1\u10d8": 3615,
  "\u2581\u10e4\u10e3\u10da\u10d8": 3616,
  "\u2581fish": 3617,
  "\u2581\u10d8\u10e5\u10dc\u10d0": 3618,
  "\u2581\u10db\u10dd\u10ea\u10d4\u10db\u10e3\u10da": 3619,
  "\u2581energy": 3620,
  "\u2581\u10d2\u10d0\u10dc\u10d5": 3621,
  "\u2581enter": 3622,
  "\u2581fast": 3623,
  "\u2581\u10e0\u10de\u10d5\u10d1\u10d0": 3624,
  "\u10d9\u10d0\u10ea\u10d8": 3625,
  "\u10e0\u10d8\u10d0": 3626,
  "\u2581closer": 3627,
  "\u2581yourselves": 3628,
  "\u10d6\u10dd": 3629,
  "\u10e7\u10d5\u10d4\u10da\u10d0": 3630,
  "\u2581aware": 3631,
  "\u2581major": 3632,
  "ger": 3633,
  "\u10db\u10d8\u10d7": 3634,
  "\u2581non": 3635,
  "\u2581search": 3636,
  "\u2581\u10db\u10e8\u10dd\u10d1\u10da\u10d4\u10d1\u10d8\u10e1": 3637,
  "\u10dc\u10d0\u10e0": 3638,
  "\u2581phone": 3639,
  "\u2581points": 3640,
  "\u2581trouble": 3641,
  "\u2581\u10e8\u10d5\u10d8\u10da": 3642,
  "\u2581manner": 3643,
  "\u2581seemed": 3644,
  "\u2581\u10db\u10e2\u10d9\u10d8\u10ea\u10d4\u10d3": 3645,
  "\u2581\u10e1\u10d0\u10e1\u10d0\u10e0\u10d2\u10d4\u10d1\u10da\u10dd": 3646,
  "\u2581\u10e1\u10e3\u10e4\u10d7\u10d0": 3647,
  "ial": 3648,
  "\u258122,": 3649,
  "\u2581\u10e0\u10d8\u10d7": 3650,
  "gra": 3651,
  "\u2581guy": 3652,
  "\u2581\u10d7\u10d5\u10d8\u10e1\u10d4\u10d1\u10d4\u10d1\u10d8": 3653,
  "\u2581names": 3654,
  "\u2581France": 3655,
  "\u2581bed": 3656,
  "\u2581game": 3657,
  "\u2581\u10d0\u10e6\u10db\u10dd\u10e9\u10dc\u10d3\u10d0": 3658,
  "\u2581\u10e1\u10d0\u10ee\u10d4": 3659,
  "\u2581seeing": 3660,
  "\u258119:": 3661,
  "\u2581Elijah": 3662,
  "\u2581unity": 3663,
  "\u2581\u10d1\u10e7\u10d4\u10d5": 3664,
  "\u2581\u10d2\u10df\u10d5": 3665,
  "\u2581\u10d9\u10d0\u10da": 3666,
  "\u2581\u10db\u10d8\u10dc\u10d3\u10d0": 3667,
  "\u10d3\u10e0\u10dd": 3668,
  "\u2581minister": 3669,
  "\u2581\u10db\u10f2\u10da\u10ec": 3670,
  "\u2581\u10e2\u10dd\u10da\u10d8\u10d0": 3671,
  "\u10d4\u10d1\u10d8\u10d0": 3672,
  "\u10d6\u10d8\u10e1": 3673,
  "\u10eb\u10d4": 3674,
  "\u2581priests": 3675,
  "\u2581\u10e8\u10d4\u10d3\u10d0\u10e0\u10d4\u10d1\u10d8\u10d7": 3676,
  "\u258142": 3677,
  "\u2581\u10ef\u10d2\u10e3\u10e4\u10d8": 3678,
  "\u10d5\u10e3": 3679,
  "\u25812000": 3680,
  "\u2581approach": 3681,
  "\u2581\u10d3\u10d0\u10db\u10d0\u10e2\u10d4\u10d1\u10d8\u10d7\u10d8": 3682,
  "\u2581\u10dd\u10e7\u10e0": 3683,
  "\u2581\u10e1\u10d0\u10e8\u10e3\u10d0\u10da\u10d4\u10d1\u10d0\u10e1": 3684,
  "\u2581\u10ee\u10d4\u10da\u10e8\u10d8": 3685,
  "\u2581carefully": 3686,
  "\u2581publications": 3687,
  "\u2581\u10e3\u10e0\u10e9": 3688,
  "\u2581\u10ea\u10ee\u10d0\u10d3\u10e7\u10dd\u10e4\u10e1": 3689,
  "\u10e0\u10d0\u10db": 3690,
  "\u2581\u10de\u10d8\u10e0\u10d0\u10d3\u10d0\u10d3": 3691,
  "ud": 3692,
  "\u2581chance": 3693,
  "\u2581\u10e5\u10e0\u10d8\u10e1\u10e2\u10d8\u10d0\u10dc": 3694,
  "\u10d5\u10dc\u10d0": 3695,
  "\u2581reported": 3696,
  "\u2581\u10d5\u10dc\u10d0\u10ee\u10dd\u10d7": 3697,
  "\u2581\u10eb\u10db\u10d4\u10d1\u10d8\u10e1": 3698,
  "\u2581sight": 3699,
  "\u2581\u10e5\u10d5\u10d4\u10db\u10dd\u10d7": 3700,
  "di": 3701,
  "\u2581Time": 3702,
  "\u2581guys": 3703,
  "\u2581\u10d2\u10d0\u10d2\u10d8": 3704,
  "\u2581\u10d2\u10e0\u10eb\u10dc\u10dd\u10d1\u10d4\u10d1\u10d8": 3705,
  "\u10e0\u10d0\u10d3": 3706,
  "\u2581mo": 3707,
  "\u2581\u10e4\u10d8\u10e5\u10e0\u10d8": 3708,
  "\u2581\u10db\u10d8\u10e1\u10d8\u10dd\u10dc\u10d4\u10e0": 3709,
  "\u10d7\u10d0\u10d5\u10d8\u10e1\u10e3\u10e4\u10da": 3710,
  "\u10df\u10d9\u10f2": 3711,
  "\u10e0\u10e3\u10da\u10d8": 3712,
  "\u2581500": 3713,
  "\u2581main": 3714,
  "\u2581send": 3715,
  "\u2581\u10e1\u10d0\u10e6\u10d0\u10db\u10dd\u10e1": 3716,
  "\u2581Through": 3717,
  "\u2581\u10d2\u10d0\u10d3\u10d0\u10ec\u10e7\u10d5\u10d4\u10e2\u10d8\u10da\u10d4\u10d1\u10d0": 3718,
  "\u10d5\u10d4\u10d1\u10d8": 3719,
  "\u10db\u10d0\u10ea": 3720,
  "\u10dd\u10d1\u10d4\u10d1\u10d8": 3721,
  "\u2581importance": 3722,
  "\u2581specific": 3723,
  "\u2581\u10e4\u10d8\u10e5\u10e0\u10dd\u10d1\u10e1": 3724,
  "\u2581looked": 3725,
  "\u2581\u10e2\u10d4\u10e5\u10e1\u10e2\u10d8": 3726,
  "\u2581\u10eb\u10d8\u10e0\u10d8\u10d7\u10d0\u10d3\u10d0\u10d3": 3727,
  "\u10d0\u10d5\u10d3\u10dc\u10d4\u10dc": 3728,
  "\u10db\u10e8\u10d5\u10d8\u10d3": 3729,
  "\u10e2\u10d4\u10e0\u10d8": 3730,
  "\u2581involves": 3731,
  "\u2581note": 3732,
  "\u2581destroy": 3733,
  "\u10f2\u10e0\u10f2": 3734,
  "\u2581buy": 3735,
  "\u2581\u10db\u10d4\u10d2\u10dd\u10d1\u10d0\u10e0\u10d8": 3736,
  "\u2581\u10dc\u10d0\u10e7\u10dd\u10e4\u10d8": 3737,
  "\u2581Mother": 3738,
  "\u2581lie": 3739,
  "\u2581\u10f3\u10d0\u10d8\u10d4\u10d5": 3740,
  "\u10dc\u10d0\u10ee\u10d4": 3741,
  "\u10e1\u10d4": 3742,
  "\u2581\u10db\u10dc\u10d8\u10e8\u10d5\u10dc\u10d4\u10da\u10dd\u10d5\u10d0\u10dc": 3743,
  "\u10d8\u10d4\u10f0\u10dd\u10d5\u10d0\u10e1": 3744,
  "\u10dc\u10d4\u10d1\u10d8": 3745,
  "\u10e0\u10e1": 3746,
  "\u2581\u10d0\u10e0\u10d0\u10d5\u10d8\u10e1": 3747,
  "\u2581\u10eb\u10d8\u10d4\u10d1\u10d0": 3748,
  "da": 3749,
  "\u2581accounts": 3750,
  "\u2581angel": 3751,
  "\u2581animal": 3752,
  "\u2581\u10d1\u10d7\u10da": 3753,
  "\u10d4\u10dc\u10d8": 3754,
  "\u258114,": 3755,
  "\u2581imagine": 3756,
  "\u2581n": 3757,
  "\u2581\u10db\u10dd\u10e1\u10d8\u10e7\u10d5\u10d0\u10e0\u10e3\u10da\u10d4": 3758,
  "\u10e0\u10d4\u10d1\u10d8": 3759,
  "\u258120:": 3760,
  "\u2581dedication": 3761,
  "\u2581fun": 3762,
  "\u2581lesson": 3763,
  "\u2581\u10d0\u10db\u10d1\u10dd\u10d1\u10d4\u10dc": 3764,
  "\u2581\u10d2\u10d0\u10db\u10e0\u10d0\u10d5\u10da\u10d4\u10d1\u10e3\u10da\u10d8": 3765,
  "\u2581\u10e4\u10d0\u10d8\u10da\u10d8": 3766,
  "\u10e2\u10e3\u10e0\u10d8": 3767,
  "\u2581effective": 3768,
  "\u2581spoken": 3769,
  "\u2581\u10d3\u10d0\u10ee\u10db\u10d0\u10e0\u10d4\u10d1\u10d8\u10d7": 3770,
  "\u2581\u10e1\u10d0\u10ee\u10d4\u10da\u10e1": 3771,
  "\u2581\u10e1\u10d0\u10ee\u10da\u10d8": 3772,
  "\u2581\u10e1\u10ec\u10e0\u10d0\u10e4\u10d0\u10d3": 3773,
  "\u2581chosen": 3774,
  "\u2581relief": 3775,
  "\u10e0\u10d3\u10d4\u10d1\u10d0": 3776,
  "\u2581\"%": 3777,
  "\u2581Set": 3778,
  "\u2581danger": 3779,
  "\u2581wives": 3780,
  "\u2581\u10db\u10dd\u10e5\u10db\u10d4\u10d3\u10d4\u10d1\u10e1": 3781,
  "her": 3782,
  "ning": 3783,
  "\u10d6\u10e6\u10d5": 3784,
  "\u2581dedicated": 3785,
  "\u2581\u10d8\u10e1\u10d4\u10d5\u10d4": 3786,
  "\u2581\u10db\u10e1\u10d0\u10ee\u10e3\u10e0\u10d4\u10d1\u10e1": 3787,
  "\u10d2\u10d0\u10db\u10dd\u10d8\u10e6\u10d5\u10d8\u10eb\u10d4\u10d7": 3788,
  "\u10e6\u10d4\u10d1": 3789,
  "\u2581Al": 3790,
  "\u2581moment": 3791,
  "\u2581\u10e1\u10d0\u10e5\u10ea\u10d8\u10d4\u10da\u10d8": 3792,
  "fe": 3793,
  "\u10e6\u10db\u10d4\u10e0\u10d7": 3794,
  "\u2581believed": 3795,
  "\u2581\u10db\u10dd\u10e5\u10db\u10d4\u10d3\u10d4\u10d1\u10d0": 3796,
  "?\u201c.": 3797,
  "gen": 3798,
  "\u2581\u10d0\u10e3\u10ea\u10d8\u10da\u10d4\u10d1\u10d4\u10da\u10d8\u10d0": 3799,
  "\u2581\u10dd\u10de": 3800,
  "\u2581[\u201e": 3801,
  "\u2581discuss": 3802,
  "\u2581\u10d2\u10d0\u10d5\u10d0\u10d9\u10d4\u10d7\u10dd\u10d7": 3803,
  "\u2581\u10d8\u10ec\u10d5\u10d4\u10d5\u10e1": 3804,
  "\u2581bar": 3805,
  "\u2581doctor": 3806,
  "\u2581suffered": 3807,
  "\u10d4\u10e0\u10e1": 3808,
  "\u2581\u10d8\u10e7\u10d0\u10d5\u10d8\u10d7": 3809,
  "\u2581\u10e6\u10d0\u10e0\u10d8\u10d1": 3810,
  "What": 3811,
  "ze": 3812,
  "\u2581basic": 3813,
  "\u2581race": 3814,
  "\u2581\u10d1\u10dd\u10e0\u10dd\u10e2": 3815,
  "\u2581Ha": 3816,
  "\u2581extreme": 3817,
  "\u2581obedient": 3818,
  "\u2581waiting": 3819,
  "Let": 3820,
  "\u10d4\u10d6": 3821,
  "\u2581School": 3822,
  "\u2581advantage": 3823,
  "\u2581\u10db\u10d0\u10d9": 3824,
  "\u2581\u10e9\u10d5\u10d4\u10dc\u10d6\u10d4": 3825,
  "ler": 3826,
  "\u2581although": 3827,
  "\u2581bread": 3828,
  "\u2581kings": 3829,
  "\u2581\u10d3\u10d0\u10d2": 3830,
  "\u2581\u10db\u10dd\u10db\u10d0\u10d5\u10d0\u10da\u10e8\u10d8": 3831,
  "\u2581\u10e1\u10e0\u10e3\u10da\u10e7\u10dd\u10e4\u10d8\u10da\u10d8": 3832,
  "\u10d8\u10e1\u10d0\u10e1": 3833,
  "\u10d9\u10d0\u10e0": 3834,
  "\u2581reasonable": 3835,
  "\u2581truths": 3836,
  "\u2581yes": 3837,
  "\u10d8\u10dc\u10d2\u10da": 3838,
  "\u2581behalf": 3839,
  "\u2581gold": 3840,
  "\u2581rain": 3841,
  "\u2581saved": 3842,
  "\u2581\u10d0\u10ee\u10d3\u10d4\u10dc\u10e1": 3843,
  "\u2581\u10e8\u10d4\u10e1\u10ec\u10d0\u10d5\u10da\u10d8\u10e1": 3844,
  "\u2581consequences": 3845,
  "\u2581\u10d6\u10e6\u10d5\u10d8\u10e1": 3846,
  "\u2581\u10db\u10e5\u10dd\u10dc\u10d4": 3847,
  "ative": 3848,
  "\u2581\u10d3\u10d0\u10d5\u10d8\u10ec\u10e7\u10d4": 3849,
  "\u2581\u10ec\u10e7\u10da\u10d8\u10e1": 3850,
  "\u10e4\u10ee": 3851,
  "\u2581response": 3852,
  "\u2581\u10d0\u10e6\u10e1\u10d0\u10d5\u10e1\u10d4": 3853,
  "\u2581\u10db\u10d8\u10db": 3854,
  "\u2581increase": 3855,
  "\u2581loyalty": 3856,
  "\u2581persecution": 3857,
  "\u2581\u10d9\u10e3\u10e0\u10d7\u10ee\u10d4\u10d5\u10d0": 3858,
  "\u2581Paradise": 3859,
  "\u2581dangerous": 3860,
  "\u2581\u10ec\u10d0\u10e8\u10da\u10d0": 3861,
  "\u2581\u10db\u10e8\u10d5\u10d8\u10d3\u10dd\u10d1\u10d8\u10e1": 3862,
  "\u2581\u10e1\u10d0\u10e4\u10e3\u10eb\u10d5\u10d4\u10da\u10d6\u10d4": 3863,
  "\u2581\u10ee\u10d0\u10dc\u10d3\u10d0\u10d6\u10db\u10e3\u10da": 3864,
  "ka": 3865,
  "\u2581Family": 3866,
  "\u2581behavior": 3867,
  "\u2581guide": 3868,
  "\u2581\u10d9\u10dd\u10e0": 3869,
  "\u2581\u10e0\u10d0\u10db\u10d4\u10e1": 3870,
  "\u2581\u10e8\u10d4\u10e1\u10d0\u10d1\u10d0\u10db\u10d8\u10e1\u10d0\u10d3": 3871,
  "\u10d4\u10dc\u10e2\u10d8": 3872,
  "\u10d8\u10dd": 3873,
  "\u2044": 3874,
  "\u2581Work": 3875,
  "\u2581cultivate": 3876,
  "\u2581existence": 3877,
  "\u2581god": 3878,
  "\u2581\u10d2\u10d0\u10d0\u10d9\u10d4\u10d7\u10d0": 3879,
  "\u10e2\u10d0\u10da": 3880,
  "\u10e2\u10d9": 3881,
  "\u2581hospital": 3882,
  "\u10d4\u10da\u10d0\u10d3": 3883,
  "\u10e2\u10e0\u10d0": 3884,
  "\u2581Once": 3885,
  "\u2581exactly": 3886,
  "\u2581ho": 3887,
  "\u2581\u10db\u10d0\u10e8\u10d8\u10dc\u10d0\u10ea": 3888,
  "\u2581\u10e1\u10d0\u10d5\u10e1\u10d4": 3889,
  "\u10e8\u10d5\u10d8": 3890,
  "\u2581\u10d4\u10e0\u10d7\u10d2\u10e3\u10da\u10d4\u10d1\u10d0": 3891,
  "\u10e8\u10e3": 3892,
  "\u258123.": 3893,
  "\u2581sacrifices": 3894,
  "\u2581visited": 3895,
  "\u2581\u10dd\u10ef\u10d0\u10ee\u10e1": 3896,
  "lin": 3897,
  "\u10e2\u10d4\u10d1\u10e1": 3898,
  "\u2581\u10d8\u10e1\u10e2\u10dd\u10e0\u10d8\u10d0": 3899,
  "\u10d0\u10ea\u10d8\u10d8\u10e1": 3900,
  "\u10d3\u10dd\u10d7": 3901,
  "\u2581camp": 3902,
  "\u2581\u10d4\u10e0\u10d7\u10db\u10d0\u10dc\u10d4\u10d7\u10d8\u10e1": 3903,
  "\u2581Joshua": 3904,
  "\u2581connection": 3905,
  "\u2581research": 3906,
  "\u2581\u10d2\u10d7\u10d5": 3907,
  "\u2581\u10d3\u10d0\u10dc\u10d0\u10ee\u10d5\u10d0": 3908,
  "\u10df\u10e0\u10d2\u10f2": 3909,
  "\u2581hundred": 3910,
  "\u2581illustration": 3911,
  "\u2581thousand": 3912,
  "AR": 3913,
  "\u2581Think": 3914,
  "\u2581\u10e1\u10d0\u10d7\u10d0\u10dc\u10d0\u10d3\u10dd": 3915,
  "ay": 3916,
  "\u10d4\u10dc\u10d0": 3917,
  "\u10dc\u10ec": 3918,
  "\u258110,": 3919,
  "\u2581fill": 3920,
  "\u2581spread": 3921,
  "\u2581tongue": 3922,
  "\u2581village": 3923,
  "\u2581\u10f1\u10dc\u10d0\u10e4\u10d7": 3924,
  "den": 3925,
  "\u25817,": 3926,
  "\u2581garden": 3927,
  "\u2581opened": 3928,
  "\u2581\u10e1\u10e3\u10e0\u10d3\u10d0": 3929,
  "\u2581\u10e8\u10d4\u10dc\u10d0\u10ee\u10d5\u10d0": 3930,
  "\u2581normal": 3931,
  "\u2581\u10d8\u10d9": 3932,
  "\u10d5\u10da\u10d8\u10d7": 3933,
  "\u2581\u10d0\u10eb\u10da\u10d4\u10d5\u10e1": 3934,
  "\u2581experiences": 3935,
  "\u2581military": 3936,
  "\u2581level": 3937,
  "\u2581\u10e8\u10d5\u10d8\u10d3\u10d8": 3938,
  "iv": 3939,
  "\u2581center": 3940,
  "\u2581patient": 3941,
  "\u2581prepare": 3942,
  "\u2581seed": 3943,
  "\u2581verse": 3944,
  "\u2581\u10d4\u10e0\u10d7\u10d0\u10d3\u10d4\u10e0\u10d7\u10d8": 3945,
  "\u2581\u10e0\u10d2\u10f2": 3946,
  "\u10dc\u10d8\u10da\u10d8": 3947,
  "\u2581eating": 3948,
  "\u10d2\u10d5\u10de": 3949,
  "\u2581computer": 3950,
  "\u2581gods": 3951,
  "\u2581\u10e8\u10d4\u10e2\u10e7\u10dd\u10d1\u10d8\u10dc\u10d4\u10d1\u10d0": 3952,
  "\u10da\u10e3": 3953,
  "\u2581300": 3954,
  "\u2581Hi": 3955,
  "\u2581\u10d2\u10d0\u10ee": 3956,
  "\u2581\u10e0\u10f2\u10da\u10d9\u10f2\u10d2\u10d0": 3957,
  "\u10e5\u10dd\u10e0\u10ec\u10d8\u10dc": 3958,
  "\u2581Day": 3959,
  "\u2581Ga": 3960,
  "\u2581\u10de\u10e0\u10d8\u10dc\u10ea\u10d8\u10de\u10d8": 3961,
  "\u2581\u10de\u10e0\u10dd\u10d2\u10e0\u10d0\u10db\u10d0": 3962,
  "\u2581\u10e9\u10d0\u10dc\u10d0\u10e0\u10d7\u10d8": 3963,
  "ft": 3964,
  "\u10d0\u10de": 3965,
  "\u2581measure": 3966,
  "\u2581resurrected": 3967,
  "\u2581\u10e4\u10d8": 3968,
  "\u10e1\u10d8\u10d0": 3969,
  "\u2581sharing": 3970,
  "\u2581\u10dc\u10ec\u10d9\u10f2\u10d8": 3971,
  "\u2581\u10e0\u10d4\u10da\u10d8\u10d2\u10d8\u10d8\u10e1": 3972,
  "\u2581\u10e1\u10d0\u10e8\u10e3\u10d0\u10da\u10d4\u10d1\u10d8\u10d7": 3973,
  "\u10d5\u10d8\u10da": 3974,
  "\u2581Tower": 3975,
  "\u2581challenges": 3976,
  "\u2581crime": 3977,
  "\u2581welcome": 3978,
  "\u2581\u10ea\u10ee\u10d4\u10d1\u10e3\u10da": 3979,
  "\u10dd\u10d1\u10d4\u10d1": 3980,
  "\u2581blind": 3981,
  "\u2581foreign": 3982,
  "\u2581ill": 3983,
  "\u2581\u10d0\u10d5\u10d8": 3984,
  "\u2581\u10d2\u10d0\u10dc\u10d6\u10e0\u10d0\u10ee\u10d5\u10d0": 3985,
  "\u2581devotion": 3986,
  "\u2581white": 3987,
  "\u2581\u10d9\u10f2\u10d8\u10e0\u10f2": 3988,
  "\u2581\u10e0\u10dd\u10db\u10da\u10d4\u10d1\u10db\u10d0\u10ea": 3989,
  "\u2581\u10e1\u10d8\u10ee\u10d0\u10e0\u10e3\u10da\u10e1": 3990,
  "io": 3991,
  "\u2581active": 3992,
  "\u2581clubs": 3993,
  "\u2581mis": 3994,
  "\u2581personally": 3995,
  "\u2581\u10e1\u10d0\u10e5\u10db\u10d4\u10d4\u10d1\u10d8": 3996,
  "\u2581German": 3997,
  "\u2581practices": 3998,
  "\u2581\u10d3\u10d8\u10d3\u10d0\u10d3": 3999,
  "\u2581\u10d4\u10d1\u10e0\u10d0\u10e3\u10da\u10d8": 4000,
  "\u10e2\u10d0\u10dc\u10ef": 4001,
  "\u2581delight": 4002,
  "\u2581\u10d8\u10e7\u10d4\u10dc\u10d4\u10d1\u10e1": 4003,
  "\u2581\u10de\u10d0\u10f1\u10d1\u10d7\u10de\u10d0": 4004,
  "\u2581\u10e0\u10d0\u10e1\u10d0\u10d9\u10d5\u10d8\u10e0\u10d5\u10d4\u10da\u10d8\u10d0": 4005,
  "\u10d4\u10e0\u10dd": 4006,
  "\u2581overseer": 4007,
  "\u2581writing": 4008,
  "ath": 4009,
  "\u10e0\u10d4\u10d1\u10d8\u10e1": 4010,
  "\u258111,": 4011,
  "\u2581Ecclesiastes": 4012,
  "\u2581arrangement": 4013,
  "\u2581humility": 4014,
  "\u2581\u10d5\u10e1\u10ec\u10d0\u10d5\u10da\u10dd\u10d1\u10d7": 4015,
  "\u2581\u10ec\u10e3\u10d7\u10d8\u10e1\u10dd\u10e4\u10da\u10d8\u10e1": 4016,
  "\u10e3\u10e1\u10d8": 4017,
  "\u258139": 4018,
  "\u2581\u10e4\u10d0\u10d8\u10da\u10d8\u10e1": 4019,
  "\u2581\u10e5\u10d0\u10d3\u10d0\u10d2\u10d4\u10d1\u10d8\u10e1": 4020,
  "\u2581\u10ea\u10ee\u10d4\u10d1\u10e3\u10da\u10d8": 4021,
  "\u10dd\u10d3\u10d4\u10e1": 4022,
  "\u2581particular": 4023,
  "ual": 4024,
  "\u10dc\u10d4\u10d1\u10dd\u10d3\u10d0": 4025,
  "\u10dd\u10e4": 4026,
  "\u2581Lu": 4027,
  "\u2581girls": 4028,
  "\u2581\u10db\u10d6\u10d8\u10e1": 4029,
  "\u2581\u10de\u10d0\u10e0\u10d0\u10db\u10d4\u10e2\u10e0\u10d4\u10d1\u10d8": 4030,
  "\u10db\u10dd\u10ec\u10db\u10d4": 4031,
  "\u2581Christianity": 4032,
  "\u2581putting": 4033,
  "\u2581\u10db\u10d0\u10e8\u10d8\u10dc\u10d5\u10d4": 4034,
  "\u2581\u10e8\u10d4\u10ee\u10d5\u10d4\u10d3\u10e0\u10d4\u10d1\u10d6\u10d4": 4035,
  "mong": 4036,
  "\u10d4\u10d2\u10dd": 4037,
  "\u2581easily": 4038,
  "\u2581\u10db\u10e1\u10d2\u10d0\u10d5\u10e1": 4039,
  "ain": 4040,
  "\u10d9\u10df": 4041,
  "\u2581conclude": 4042,
  "\u2581unique": 4043,
  "\u258148": 4044,
  "\u2581Y": 4045,
  "\u2581responsible": 4046,
  "\u2581\u10d0\u10d3\u10d2\u10d8\u10da\u10d0\u10e1": 4047,
  "\u2581\u10d5\u10ee\u10d4\u10d3\u10d0\u10d5\u10d7": 4048,
  "\u2581\u10db\u10d0\u10d2\u10d0\u10da\u10d8\u10d7\u10e1": 4049,
  "\u10eb\u10da\u10d4\u10d1": 4050,
  "\u2581abuse": 4051,
  "\u2581afraid": 4052,
  "\u2581declared": 4053,
  "\u2581publication": 4054,
  "\u2581workers": 4055,
  "\u2581\u10ed\u10d4\u10e8\u10db\u10d0\u10e0\u10d8\u10e2\u10d4\u10d1\u10d0\u10e1": 4056,
  "\u2581rock": 4057,
  "\u10ec\u10d4\u10e0\u10d8": 4058,
  "\u2581El": 4059,
  "\u2581concerned": 4060,
  "\u2581mark": 4061,
  "\u2581red": 4062,
  "\u2581\u10ec\u10d8\u10dc\u10d0\u10d7": 4063,
  "\u10d4\u10da\u10d7\u10d0": 4064,
  "\u2581becomes": 4065,
  "\u2581diamonds": 4066,
  "\u2581\u10eb\u10d8\u10e1": 4067,
  "lic": 4068,
  "\u10d0\u10d7\u10d5\u10d8\u10e1": 4069,
  "\u2581Cor": 4070,
  "\u2581missionaries": 4071,
  "\u2581teachers": 4072,
  ":%": 4073,
  "ide": 4074,
  "\u10dc\u10df": 4075,
  "\u2581includes": 4076,
  "\u2581\u10e1\u10d0\u10e1\u10d0\u10db\u10d0\u10e0\u10d7\u10da\u10dd": 4077,
  "\u2581\u10ea\u10d0": 4078,
  "\u2581Christendom": 4079,
  "\u2581convinced": 4080,
  "\u2581harm": 4081,
  "\u2581\u10d8\u10e3": 4082,
  "\u2581\u10e1\u10d0\u10e5\u10db\u10d4\u10e1": 4083,
  "\u2581\u10eb\u10d0\u10da\u10d0\u10e1": 4084,
  "ING": 4085,
  "\u2581Ka": 4086,
  "\u2581busy": 4087,
  "\u2581w": 4088,
  "\u2581\u10e1\u10d0\u10dc": 4089,
  "\u2581\u10ec\u10d0\u10e0\u10db\u10dd\u10d8\u10d3\u10d2\u10d8\u10dc\u10d4\u10d7": 4090,
  "\u2581\u10f0\u10d4": 4091,
  "000": 4092,
  "ven": 4093,
  "\u2581comp": 4094,
  "\u2581sit": 4095,
  "\u2581\u10d5\u10d4\u10dc\u10f2": 4096,
  "\u2581\u10d7\u10d0\u10e0\u10d2\u10db\u10d0\u10dc\u10d8": 4097,
  "\u2581\u10ea\u10ee\u10e0\u10d0": 4098,
  "\u2581\u10ec\u10da\u10d8\u10d3\u10d0\u10dc": 4099,
  "\u2581requires": 4100,
  "\u2581\u10db\u10d0\u10db": 4101,
  "\u2581\u10df\u10e7\u10df": 4102,
  "\u2581accomplish": 4103,
  "\u2581attended": 4104,
  "\u2581brain": 4105,
  "\u2581\u10d8\u10d2\u10d0\u10d5\u10d4\u10d1\u10d8": 4106,
  "ail": 4107,
  "ign": 4108,
  "\u10ef\u10d4": 4109,
  "\u2581lay": 4110,
  "\u2581\u10d8\u10dd\u10d0\u10dc\u10d4": 4111,
  "This": 4112,
  "\u10d0\u10d5\u10d8": 4113,
  "\u2581Gilead": 4114,
  "\u2581Ne": 4115,
  "\u2581improve": 4116,
  "\u2581wedding": 4117,
  "\u2581\u10df\u10e3\u10e0\u10dc\u10d0\u10da\u10d8\u10e1": 4118,
  "ip": 4119,
  "\u2581\u10d2\u10d0\u10df": 4120,
  "\u10ee\u10d5\u10d0": 4121,
  "\u2581Se": 4122,
  "\u2581alcohol": 4123,
  "\u2581background": 4124,
  "\u2581remained": 4125,
  "\u2581\u10da\u10f2": 4126,
  "\u10dc\u10f2\u10df\u10e0": 4127,
  "\u258112,": 4128,
  "\u2581grateful": 4129,
  "\u2581listening": 4130,
  "\u2581urged": 4131,
  "\u2581\u10dc\u10d0\u10dd\u10de\u10d0\u10d2\u10d7": 4132,
  "\u2581\u10ec\u10d8\u10d2\u10dc\u10d8\u10e1": 4133,
  "\u10dc\u10d0\u10d8\u10e0\u10d0\u10d3": 4134,
  "\u2581Dad": 4135,
  "\u10e3\u10da\u10db\u10d0": 4136,
  "\u2581content": 4137,
  "\u2581fell": 4138,
  "\u2581\u10e4\u10dd\u10e0\u10db\u10d0": 4139,
  "\u2581\u10ea\u10ee\u10dd\u10d5\u10e0\u10dd\u10d1\u10d3\u10d0": 4140,
  "\u10d1\u10e0\u10d0": 4141,
  "\u2581High": 4142,
  "\u2581affected": 4143,
  "\u2581authorities": 4144,
  "\u2581em": 4145,
  "\u2581reached": 4146,
  "\u2581refused": 4147,
  "\u2581\u10d6\u10e0\u10e3\u10dc\u10d0\u10d5\u10e1": 4148,
  "\u2581\u10de\u10d0\u10e0": 4149,
  "hi": 4150,
  "\u2581cell": 4151,
  "\u2581\u10d5\u10d0\u10da": 4152,
  "\u2581\u10d8\u10e1\u10e0\u10d0\u10d4\u10da\u10d4\u10d1\u10d8": 4153,
  "\u2581\u10dd\u10de\u10d7\u10ec\u10e0\u10d5\u10da": 4154,
  "\u2581\u10df\u10e7\u10d6\u10d0\u10da\u10ec\u10d2\u10d0\u10db": 4155,
  "\u2581assist": 4156,
  "\u2581window": 4157,
  "\u2581\u10d4\u10e0": 4158,
  "ff": 4159,
  "\u2581size": 4160,
  "\u2581valuable": 4161,
  "\u2581violent": 4162,
  "\u2581\u10d0\u10e3\u10ea\u10d8\u10da\u10d4\u10d1\u10d4\u10da\u10d8": 4163,
  "\u2581\u10db\u10dd\u10d9\u10da\u10d4": 4164,
  "20": 4165,
  "let": 4166,
  "my": 4167,
  "\u10de\u10e7\u10e0": 4168,
  "\u10e7\u10dd\u10e4\u10d8\u10da": 4169,
  "\u2581Bo": 4170,
  "\u2581Mo": 4171,
  "\u2581fit": 4172,
  "\u2581wide": 4173,
  "\u2581\u10ec\u10d0\u10e0\u10db\u10dd\u10d0\u10d3\u10d2\u10d4\u10dc\u10e1": 4174,
  "\u2581\u10ec\u10e7\u10d0\u10da\u10d8": 4175,
  "\u10de\u10e1": 4176,
  "\u2581aid": 4177,
  "\u10e3\u10e0\u10d0": 4178,
  "\u2581Other": 4179,
  "\u2581grew": 4180,
  "\u2581hearing": 4181,
  "\u2581particularly": 4182,
  "\u2581\u10d2\u10d5\u10e4\u10d5": 4183,
  "\u2581continues": 4184,
  "\u2581sub": 4185,
  "\u2581\u10d3\u10d0\u10d3\u10d4\u10d1\u10d8\u10d7\u10d8": 4186,
  "\u2581\u10e9\u10d0\u10e3": 4187,
  "act": 4188,
  "\u10d8\u10e2": 4189,
  "\u10dc\u10d4\u10d1\u10d8\u10d7": 4190,
  "\u258122.": 4191,
  "\u2581\u10d9\u10d0\u10ea\u10dd\u10d1\u10e0\u10d8\u10dd\u10d1\u10d8\u10e1": 4192,
  "\u2581\u10e1\u10d0\u10d4\u10e0\u10d7\u10dd\u10d3": 4193,
  "\u2581\u10e1\u10d8\u10db\u10d0\u10e0\u10d7\u10da\u10d4": 4194,
  "\u10d5\u10e0\u10d0": 4195,
  "\u10dc\u10d4\u10e0": 4196,
  "\u2581moving": 4197,
  "\u2581nice": 4198,
  "\u2581telling": 4199,
  "\u2581\u10d2\u10d5\u10d4\u10e0\u10d3\u10d4\u10d1\u10d6": 4200,
  "\u10db\u10d4\u10dc\u10d8": 4201,
  "\u10dc\u10e3\u10d2\u10d4\u10e8": 4202,
  "\u258116,": 4203,
  "\u2581pure": 4204,
  "\u2581resist": 4205,
  "\u2581writer": 4206,
  "\u2581\u10e1\u10d0\u10ee\u10d8\u10e1": 4207,
  "ging": 4208,
  "tter": 4209,
  "\u2581Dis": 4210,
  "\u2581Pro": 4211,
  "\u2581\u10f2\u10df": 4212,
  "J": 4213,
  "\u10d1\u10d3\u10dc\u10d4\u10dc": 4214,
  "\u10d5\u10d3\u10d4\u10d1\u10d0": 4215,
  "\u2581pattern": 4216,
  "\u2581\u10db\u10ee\u10d0\u10e0\u10e1": 4217,
  "\u2581\u10e2\u10d4": 4218,
  "\u2581\u10e8\u10d4\u10d9\u10d8\u10d7\u10ee\u10d5\u10d4\u10d1\u10d8": 4219,
  "@": 4220,
  "use": 4221,
  "\u10e5\u10ea\u10d4\u10d5\u10d8": 4222,
  "\u10ea\u10d8\u10d8\u10e1": 4223,
  "\u2581join": 4224,
  "\u2581\u10e1\u10d0\u10d8\u10d3\u10d0\u10dc": 4225,
  "\u2581\u10e1\u10d0\u10e5\u10db\u10d8\u10e1": 4226,
  "\u2581\u10e1\u10d8\u10d9\u10d4\u10d7\u10d4": 4227,
  "\u10d0\u10ec": 4228,
  "\u2581relative": 4229,
  "\u2581values": 4230,
  "\u2581\u10db\u10d0\u10d8": 4231,
  "\u2581\u10e1\u10d8\u10db\u10e6\u10d4\u10e0\u10d4\u10d1\u10d8": 4232,
  "\u2581\u10e4\u10d0\u10e5\u10e2\u10d8": 4233,
  "\u2581\u10e8\u10d4\u10d2": 4234,
  "\u10ef\u10dd": 4235,
  "\u2581correct": 4236,
  "\u2581hit": 4237,
  "\u2581opposition": 4238,
  "\u2581\u10e3\u10d0\u10e0\u10e7\u10dd\u10e4\u10d8\u10d7\u10d8": 4239,
  "\u2581\u10e4\u10d8\u10e5\u10e0\u10dd\u10d1\u10d7": 4240,
  "\u2581\u10ee\u10e3\u10d7": 4241,
  "\u2581\u10d8\u10e6\u10d4\u10d1\u10e1": 4242,
  "\u2581\u10db\u10dd\u10ea\u10d8\u10e5\u10e3\u10da": 4243,
  "\u2581\u10de\u10e0\u10dd\u10d1\u10da\u10d4\u10db\u10d4\u10d1\u10d8": 4244,
  "\u2581\u10e0\u10d4\u10d2\u10e3\u10da\u10d0\u10e0\u10e3\u10da\u10d0\u10d3": 4245,
  "\u10d3\u10e6\u10d4": 4246,
  "\u2581region": 4247,
  "\u2581student": 4248,
  "\u2581\u10e5\u10d0\u10da\u10d4\u10d1\u10d8": 4249,
  "\u10d6\u10d4\u10ea": 4250,
  "\u10db\u10ea\u10d8\u10e0\u10d4": 4251,
  "\u10eb\u10e0": 4252,
  "\u2581careful": 4253,
  "\u2581store": 4254,
  "\u2581\u10de\u10d5\u10d4": 4255,
  "\u2581Ho": 4256,
  "\u2581\u10d2\u10d0\u10d2\u10d5\u10d8": 4257,
  "\u2581\u10d8\u10d4\u10e0\u10e3\u10e1\u10d0\u10da\u10d8\u10db\u10e8\u10d8": 4258,
  "\u2581\u10dc\u10d7\u10d5": 4259,
  "\u2581\u10e0\u10dd\u10db\u10d4\u10da\u10d7\u10d0\u10ea": 4260,
  "\u2581\u10e0\u10f2\u10e4\u10dc\u10f2": 4261,
  "\u2581\u10e5\u10dd\u10e0\u10ec\u10d8\u10dc\u10d4\u10d1\u10d0": 4262,
  "Without": 4263,
  "ran": 4264,
  "\u2581adds": 4265,
  "\u2581concerning": 4266,
  "\u2581\u10d2\u10d0\u10d5\u10e0\u10ea\u10d4\u10da\u10d4\u10d1\u10e3\u10da\u10d8": 4267,
  "\u2581\u10d9\u10d0\u10ea\u10dd\u10d1\u10e0\u10d8\u10dd\u10d1\u10d0\u10e1": 4268,
  "\u2581\u10db\u10dd\u10d5\u10da\u10d4\u10dc\u10d0": 4269,
  "\u2581\u10e0\u10dd\u10d2\u10dd\u10e0\u10d8\u10ea": 4270,
  "\u2581across": 4271,
  "\u2581design": 4272,
  "\u2581viewed": 4273,
  "\u2581\u10d0\u10d7\u10d0\u10e1\u10dd\u10d1\u10d8\u10d7": 4274,
  "\u2581\u10d7\u10d0\u10d5\u10e8\u10d8": 4275,
  "AL": 4276,
  "ob": 4277,
  "\u10d2\u10d0\u10db\u10dd": 4278,
  "\u2581Pre": 4279,
  "\u2581\u10d0\u10d1": 4280,
  "\u2581\u10d4\u10dc\u10d8\u10e1": 4281,
  "\u2581\u10e5\u10d0\u10da\u10d0\u10e5\u10d8": 4282,
  "\u2581\u10ef\u10dd": 4283,
  "\u2581\u10d0\u10e1\u10d4\u10d0": 4284,
  "\u2581\u10e1\u10d0\u10d8\u10d3\u10e3\u10db\u10da\u10dd": 4285,
  "\u2581creatures": 4286,
  "\u2581temptation": 4287,
  "\u2581\u10d9\u10e3\u10d7\u10ee\u10d4": 4288,
  "\u2581\u10dd\u10de\u10f2\u10d1\u10da\u10d5\u10db": 4289,
  "\u2581\u10df\u10e0\u10d0": 4290,
  "\u2581\u10e5\u10d5\u10d4\u10e7\u10dc\u10d8\u10d4\u10e0\u10d4\u10d1\u10d0": 4291,
  "\u2581\u10ec\u10d4\u10e0\u10d8\u10d0": 4292,
  "pro": 4293,
  "\u10d2\u10d3\u10d4\u10d1": 4294,
  "\u258124.": 4295,
  "\u2581growing": 4296,
  "\u2581leading": 4297,
  "\u2581limited": 4298,
  "\u2581\u10d3\u10d0\u10e4\u10e3\u10eb\u10dc\u10d4\u10d1\u10e3\u10da\u10d8": 4299,
  "\u10d5\u10d0\u10d7": 4300,
  "\u10e4\u10d4\u10e0\u10d8": 4301,
  "\u10e5\u10d5\u10d4": 4302,
  "\u2581Remove": 4303,
  "\u2581add": 4304,
  "\u2581deliver": 4305,
  "\u2581\u10d2\u10d6\u10d0\u10e1": 4306,
  "\u2581attending": 4307,
  "\u2581remind": 4308,
  "\u2581\u10db\u10e7\u10dd\u10e4": 4309,
  "30": 4310,
  "ee": 4311,
  "\u10d7\u10d0\u10d5\u10d0": 4312,
  "\u2581Use": 4313,
  "\u2581\u10d4\u10d5\u10d0": 4314,
  "day": 4315,
  "\u2581hair": 4316,
  "\u2581oil": 4317,
  "\u2581trees": 4318,
  "ries": 4319,
  "\u10e2\u10d0\u10ea\u10d4\u10d1": 4320,
  "\u2581communication": 4321,
  "\u2581top": 4322,
  "\u10d0\u10e0\u10d5\u10da": 4323,
  "\u10dd\u10de\u10d0\u10d2": 4324,
  "\u10de\u10d0\u10e0\u10d0\u10d9": 4325,
  "\u2581Wait": 4326,
  "\u2581spades": 4327,
  "\u2581\u10d7\u10d4\u10db\u10d0": 4328,
  "\u2581\u10df\u10e3\u10e0\u10dc\u10d0\u10da\u10d8": 4329,
  "\u2581\u10e8\u10d4\u10ea\u10d5\u10da\u10d0": 4330,
  "\u2581Co": 4331,
  "\u2581Mount": 4332,
  "\u2581current": 4333,
  "\u2581notes": 4334,
  "\u2581\u10d2\u10d0\u10db\u10dd\u10d0\u10d5\u10da\u10d8\u10dc\u10d0": 4335,
  "\u00bb": 4336,
  "\u2581Di": 4337,
  "\u2581compassion": 4338,
  "\u2581produced": 4339,
  "\u2581ruin": 4340,
  "\u2581sword": 4341,
  "\u2581\u10d0\u10d6\u10e0\u10dd\u10d5\u10dc\u10d4\u10d1\u10d0": 4342,
  "\u2581\u10d0\u10dc\u10d2\u10d4\u10da\u10dd\u10d6\u10d4\u10d1\u10d8": 4343,
  "\u2581\u10d8\u10e3\u10d3\u10d0": 4344,
  "\u2581contains": 4345,
  "\u2581series": 4346,
  "\u2581statement": 4347,
  "\u2581touch": 4348,
  "\u2581warned": 4349,
  "\u2581boys": 4350,
  "\u2581causes": 4351,
  "\u2581company": 4352,
  "\u2581\u10e0\u10d4\u10da\u10d8\u10d2\u10d8\u10e3\u10e0": 4353,
  "\u2581\u10e1\u10d0\u10e5\u10db\u10d8\u10d0\u10dc\u10dd\u10d1\u10d0": 4354,
  "\u2581\u10e8\u10d4\u10d3\u10d8\u10e1": 4355,
  "When": 4356,
  "\u10e3\u10e4": 4357,
  "\u10ee\u10db\u10dd": 4358,
  "\u2581opening": 4359,
  "\u2581\u10d4\u10ed\u10d5\u10d8": 4360,
  "\u2581\u10e1\u10dd": 4361,
  "\u2581mountain": 4362,
  "\u2581popular": 4363,
  "\u2581situations": 4364,
  "\u2581successful": 4365,
  "\u2581\u10e1\u10d9\u10dd\u10da\u10d0": 4366,
  "phe": 4367,
  "\u10e4\u10d5\u10dc": 4368,
  "\u2581\u10d2\u10d0\u10db\u10d8": 4369,
  "\u2581\u10e0\u10d8\u10d7\u10d0\u10ea": 4370,
  "\u2581\u10e1\u10d0\u10e7\u10d5\u10d0\u10e0\u10d4\u10da\u10d8": 4371,
  "\u2581\u10e5\u10d0\u10da\u10d0\u10e5\u10e8\u10d8": 4372,
  "\u2581\u10ea\u10ee\u10d0\u10d3\u10e7\u10dd": 4373,
  "\u2581\u10ee\u10d0\u10d6\u10d8": 4374,
  "\u2581Philippians": 4375,
  "\u2581environment": 4376,
  "\u10d2\u10d5\u10d8": 4377,
  "\u2581\u10e1\u10d0\u10d9\u10db\u10d0\u10e0\u10d8\u10e1\u10d8": 4378,
  "\u10d5\u10dd": 4379,
  "\u10e6\u10d5\u10d7\u10dd": 4380,
  "\u25811\u20444": 4381,
  "\u2581\u10d9\u10e0\u10d4\u10d1\u10d0\u10e1": 4382,
  "\u02b9": 4383,
  "\u10d3\u10d2\u10d4\u10d1\u10d0": 4384,
  "\u2581Finally": 4385,
  "\u2581demonstrate": 4386,
  "\u2581\u10d3\u10d0\u10e1\u10d0\u10ec\u10e7\u10d8\u10e1\u10e8\u10d8": 4387,
  "\u2581\u10db\u10d8\u10e1\u10d0\u10e6\u10d4\u10d1\u10d0\u10d3": 4388,
  "\u2581\u10e9\u10d8": 4389,
  "\u2581\u201c\u2014": 4390,
  "\u10d3\u10e3": 4391,
  "\u10d7\u10d0\u10d2\u10d0\u10dc": 4392,
  "\u10e5\u10db\u10dc\u10d0": 4393,
  "\u2581August": 4394,
  "\u2581carried": 4395,
  "\u2581disciple": 4396,
  "\u2581leaving": 4397,
  "\u2581low": 4398,
  "\u2581worry": 4399,
  "\u2581\u10d4\u10ee\u10db\u10d0\u10e0\u10d4\u10d1\u10d0": 4400,
  "EN": 4401,
  "log": 4402,
  "qu": 4403,
  "\u10d8\u10e7\u10dd": 4404,
  "\u2581cities": 4405,
  "\u2581obedience": 4406,
  "\u2581plan": 4407,
  "\u2581root": 4408,
  "\u2581\u10d0\u10d9\u10d4\u10d7\u10d4\u10d1\u10e1": 4409,
  "\u2581\u10db\u10d8\u10e3\u10d7\u10d8\u10d7\u10d4\u10d1\u10e1": 4410,
  "\u2581\u10ea\u10d3\u10d8\u10da\u10dd\u10d1\u10e1": 4411,
  "ko": 4412,
  "\u10e4\u10e1": 4413,
  "\u10f1\u10dc\u10d0": 4414,
  "\u2581America": 4415,
  "\u2581\u10db\u10d8\u10da\u10d8\u10dd\u10dc\u10dd\u10d1\u10d8\u10d7": 4416,
  "\u2581\u10db\u10dd\u10ec\u10d0\u10e4\u10d4": 4417,
  "rat": 4418,
  "\u10d8\u10dc\u10d8": 4419,
  "\u2581Compare": 4420,
  "\u2581Under": 4421,
  "\u2581reward": 4422,
  "\u2581\u10df\u10d2\u10f2": 4423,
  "\u2581\u10e1\u10ec\u10dd\u10e0\u10d0\u10d3": 4424,
  "10": 4425,
  "od": 4426,
  "\u10d2\u10e0\u10d4": 4427,
  "\u10ee\u10d0\u10d6": 4428,
  "\u2581stick": 4429,
  "\u2581\u10dd\u10f2\u10d2\u10d5\u10e4\u10d5": 4430,
  "\u10d1\u10e0\u10eb": 4431,
  "\u10d8\u10e3\u10e0\u10d8": 4432,
  "\u2581error": 4433,
  "\u2581reveal": 4434,
  "\u2581\u10e4\u10e1\u10d0\u10da\u10db\u10e3\u10dc\u10db\u10dd\u10db\u10e6\u10d4\u10e0\u10d0\u10da": 4435,
  "\u10d4\u10da\u10d8\u10e1": 4436,
  "\u2581answered": 4437,
  "\u2581\u10dd\u10e0\u10d2\u10d0\u10dc\u10d8\u10d6\u10d0\u10ea\u10d8\u10d0": 4438,
  "\u2581\u10e1\u10d0\u10e0\u10d2\u10d4\u10d1\u10da\u10dd\u10d1\u10d0": 4439,
  "\u2581\u10e1\u10d8\u10e1\u10e2\u10d4\u10db\u10d8\u10e1": 4440,
  "des": 4441,
  "\u10d4\u10e0\u10d8\u10e1": 4442,
  "\u10d8\u10da\u10e1": 4443,
  "\u2581Book": 4444,
  "\u2581drugs": 4445,
  "\u2581\u10db\u10d3\u10d4\u10d1\u10d0\u10e0\u10d4": 4446,
  "\u2581\u10db\u10d8\u10ec\u10d0": 4447,
  "\u10d8\u10d9\u10d0": 4448,
  "\u10f2\u10d2\u10d7": 4449,
  "\u2581\u10d1\u10d4\u10e0": 4450,
  "\u2581\u10db\u10dd\u10d7\u10db\u10d8\u10dc\u10d4\u10d1\u10d0": 4451,
  "\u2581\u10de\u10d0\u10e1\u10e3\u10ee\u10e1": 4452,
  "\u2581\u10e1\u10d0\u10db\u10ec\u10e3\u10ee\u10d0\u10e0\u10dd\u10d3": 4453,
  "ner": 4454,
  "\u2581conversation": 4455,
  "\u2581due": 4456,
  "\u2581friendship": 4457,
  "\u2581overcome": 4458,
  "\u2581raise": 4459,
  "\u2581relatives": 4460,
  "\u2581\u10d9\u10f2\u10d3\u10d0": 4461,
  "\u2581\u10da\u10e3": 4462,
  "\u2581\u10e1\u10d8\u10e2\u10e7\u10d5\u10d0\u10e8\u10d8": 4463,
  "\u2581\u10e2\u10d8\u10db\u10dd\u10d7\u10d4\u10e1": 4464,
  "ED": 4465,
  "\u2581Col": 4466,
  "\u2581\u10d2\u10d0\u10dc\u10e1\u10ee\u10d5\u10d0\u10d5\u10d4\u10d1\u10e3\u10da\u10d8": 4467,
  "\u2581\u10d2\u10d5\u10d0\u10e1\u10ec\u10d0\u10d5\u10da\u10d8\u10e1": 4468,
  "\u2581\u10db\u10d0\u10d2\u10d0\u10da\u10d8\u10d7\u10d4\u10d1\u10d8": 4469,
  "\u2581\u10de\u10d8": 4470,
  "\u2581\u10e1\u10d0\u10d8\u10dc\u10e2\u10d4\u10e0\u10d4\u10e1\u10dd": 4471,
  "\u2581\u10e1\u10d0\u10ee\u10da\u10d8\u10e1": 4472,
  "ice": 4473,
  "\u10d2\u10dd\u10dc\u10d8": 4474,
  "\u10de\u10d0\u10f1": 4475,
  "\u10e3\u10da\u10e1": 4476,
  "\u2581Every": 4477,
  "\u2581Maybe": 4478,
  "\u2581\u10e1\u10ed\u10d8\u10e0\u10d3\u10d4\u10d1\u10d0": 4479,
  "\u2581\u10d3\u10d0\u10ee\u10db\u10d0\u10e0\u10d4\u10d1\u10d0\u10e1": 4480,
  "\u2581\u10d9\u10d0\u10de": 4481,
  "\u2581\u10dc\u10d8\u10e3": 4482,
  "\u2581\u10e1\u10d0\u10d0\u10d7\u10d8": 4483,
  "hether": 4484,
  "\u2581acceptable": 4485,
  "\u2581describes": 4486,
  "\u2581discovered": 4487,
  "\u2581strive": 4488,
  "\u2581\u10db\u10d8\u10d5": 4489,
  "\u2581\u10dd\u10d0\u10de": 4490,
  "\u2581\u10e1\u10d8\u10d0\u10e0\u10e3\u10da\u10d8": 4491,
  "\u10d4\u10d1\u10d4\u10d1\u10d8\u10e1": 4492,
  "\u2581issues": 4493,
  "\u2581slow": 4494,
  "\u2581\u10d1\u10d4\u10d3\u10dc\u10d8\u10d4\u10e0\u10d4\u10d1\u10d0\u10e1": 4495,
  "\u2581\u10db\u10d8\u10e1\u10d0\u10db\u10d0\u10e0\u10d7\u10d8": 4496,
  "\u2581\u10dc\u10dd\u10d4\u10e1": 4497,
  "IC": 4498,
  "\u10d1\u10d5": 4499,
  "\u2581reality": 4500,
  "\u2581sovereignty": 4501,
  "\u2581\u10d2\u10d0\u10e1": 4502,
  "\u2581\u10d5\u10e0\u10f2": 4503,
  "\u2581\u10dc\u10d0\u10d7\u10d4\u10da\u10d8": 4504,
  "\u2581\u10de\u10d4": 4505,
  "\u2581\u10e5\u10d5\u10d4": 4506,
  "\u2581\u10e8\u10d4\u10e1\u10d0\u10eb\u10da\u10d4\u10d1\u10d4\u10da\u10d8": 4507,
  "\u258165": 4508,
  "\u2581Note": 4509,
  "\u2581bringing": 4510,
  "\u2581offering": 4511,
  "\u2581\u10db\u10d8\u10d8": 4512,
  "\u2581\u10dc\u10d0\u10ec\u10d8": 4513,
  "\u2581\u10f3\u10f2": 4514,
  "lurb": 4515,
  "\u10d5\u10e0\u10ea\u10d4\u10da": 4516,
  "\u10df\u10f2": 4517,
  "\u2581$": 4518,
  "\u2581Colossians": 4519,
  "\u2581comments": 4520,
  "\u2581occur": 4521,
  "\u2581\u10d6\u10dd\u10d2\u10e1": 4522,
  "\u2581\u10e0\u10d5\u10f1\u10d7": 4523,
  "\u10e0\u10d4\u10d7": 4524,
  "\u2581appearance": 4525,
  "\u2581dear": 4526,
  "\u2581hate": 4527,
  "\u2581pioneers": 4528,
  "\u2581publishers": 4529,
  "\u2581worse": 4530,
  "\u2581\u10d6\u10d4\u10ea\u10d8\u10d4\u10e0": 4531,
  "\u2581\u10db\u10d8\u10ec\u10d8\u10e1": 4532,
  "\u2581elderly": 4533,
  "\u2581surely": 4534,
  "\u2581survive": 4535,
  "\u2581\u10d3\u10d0\u10e1\u10d0\u10d5\u10da\u10d4\u10d7": 4536,
  "\u2581\u10ef\u10d0\u10dc\u10db\u10e0\u10d7\u10d4\u10da\u10dd\u10d1\u10d0": 4537,
  "\u2581forgiveness": 4538,
  "\u2581greatly": 4539,
  "\u2581\u10d3\u10f2\u10d2\u10f2\u10de\u10d7": 4540,
  "\u2581French": 4541,
  "\u2581harvest": 4542,
  "\u2581\u10d4\u10d9\u10da\u10d4\u10e1\u10d8\u10d8\u10e1": 4543,
  "\u2581\u10d5\u10d4\u10d1": 4544,
  "\u2581\u10e1\u10ec\u10d0\u10d5\u10da\u10d4\u10d1\u10d0": 4545,
  "\u2581referred": 4546,
  "\u2581\u10e0\u10dd\u10d2\u10dd\u10e0\u10d8\u10ea\u10d0\u10d0": 4547,
  "ight": 4548,
  "lar": 4549,
  "\u10d1\u10e0\u10d8": 4550,
  "\u10dd\u10db\u10d8": 4551,
  "\u10e1\u10d0\u10d5\u10d8\u10d7": 4552,
  "\u2581population": 4553,
  "\u2581\u10d9\u10d0\u10e0\u10d8": 4554,
  "\u2581legal": 4555,
  "\u2581\u10d2\u10d0\u10d8\u10d2\u10dd": 4556,
  "\u2581\u10d2\u10dd\u10dc\u10d8\u10d4\u10e0\u10d8": 4557,
  "\u2581\u10d6\u10d5": 4558,
  "\u2581\u10db\u10d7\u10df\u10da\u10d7\u10e5": 4559,
  "\u2581gifts": 4560,
  "\u2581path": 4561,
  "\u2581uses": 4562,
  "60": 4563,
  "fully": 4564,
  "\u2581Thanks": 4565,
  "\u2581art": 4566,
  "\u2581invitation": 4567,
  "\u2581\u10d2\u10d5\u10d4\u10e0\u10d3\u10d8\u10d7": 4568,
  "\u2581\u10db\u10dd\u10d5\u10da\u10d4\u10dc\u10d4\u10d1\u10d8": 4569,
  "che": 4570,
  "\u10dd\u10d3\u10d8\u10d7": 4571,
  "\u2581drinking": 4572,
  "\u2581letters": 4573,
  "\u2581\u10d2\u10d0\u10d3\u10d0\u10ec\u10e7\u10d5\u10d4\u10e2\u10d8\u10da\u10d4\u10d1\u10d4\u10d1": 4574,
  "\u2581\u10d2\u10d6\u10d0\u10d6\u10d4": 4575,
  "\u2581\u10e5\u10d0": 4576,
  "\u2581\u10e8\u10d4\u10eb\u10da\u10d4\u10d1": 4577,
  "\u2581expected": 4578,
  "\u2581notice": 4579,
  "\u2581\u10dd\u10de\u10d0\u10d2\u10d7\u10e5": 4580,
  "\u2581\u10e1\u10d0\u10ee\u10d4\u10da\u10db\u10ec\u10d8\u10e4\u10dd": 4581,
  "\u2581\u10e4\u10dd": 4582,
  "ient": 4583,
  "sha": 4584,
  "\u10d4\u10db\u10d8": 4585,
  "\u10d8\u10dc\u10d8\u10e1": 4586,
  "\u10da\u10e3\u10e0\u10d8": 4587,
  "\u10dd\u10d1\u10d0\u10e8\u10d8": 4588,
  "\u2581merely": 4589,
  "\u2581rise": 4590,
  "\u2581\u10de\u10d0\u10e1\u10e3\u10ee\u10d8\u10e1\u10db\u10d2\u10d4\u10d1\u10da\u10dd\u10d1\u10d0": 4591,
  "\u10d4\u10e0\u10d7\u10d8": 4592,
  "\u10d9\u10dd\u10e1": 4593,
  "\u2581discreet": 4594,
  "\u25811999": 4595,
  "\u2581BIBLE": 4596,
  "\u2581Per": 4597,
  "\u2581designed": 4598,
  "\u2581hundreds": 4599,
  "\u2581manifest": 4600,
  "\u2581shepherd": 4601,
  "\u2581sincere": 4602,
  "\u2581www": 4603,
  "\u2581\u10d3\u10d0\u10d2\u10d5": 4604,
  "\u2581\u10d8\u10dc\u10e4\u10dd\u10e0\u10db\u10d0\u10ea\u10d8\u10d8\u10e1": 4605,
  "lt": 4606,
  "\u2581Japan": 4607,
  "\u2581Table": 4608,
  "\u2581decide": 4609,
  "\u2581looks": 4610,
  "\u2581\u10d1\u10d0\u10d5\u10e8\u10d5\u10e1": 4611,
  "\u2581\u10d5\u10d8\u10ea\u10d8": 4612,
  "los": 4613,
  "\u10e3\u10da\u10d8\u10d0": 4614,
  "\u10e3\u10da\u10dc\u10d8": 4615,
  "\u2581\u10d0\u10e6\u10d3\u10d2\u10dd\u10db\u10d8\u10e1": 4616,
  "\u2581\u10d1\u10d0\u10d5\u10e8\u10d5\u10d8\u10e1": 4617,
  "\u2581\u10e3\u10e7\u10d5\u10d0\u10e0\u10e1": 4618,
  "ON": 4619,
  "\u2581anxiety": 4620,
  "\u2581exist": 4621,
  "\u2581foot": 4622,
  "\u2581presented": 4623,
  "\u2581\u10d2\u10d0\u10d3\u10d0\u10db": 4624,
  "\u2581\u10e1\u10d1\u10d7": 4625,
  "\u2581\u10e3\u10db\u10e0\u10d0\u10d5\u10da\u10d4\u10e1\u10dd\u10d1\u10d0": 4626,
  "\u2581\u10e8\u10d5\u10d8\u10da\u10d4\u10d1\u10d8\u10e1": 4627,
  "There": 4628,
  "ble": 4629,
  "pi": 4630,
  "\u10db\u10d8\u10dc\u10d0": 4631,
  "\u10e1\u10ec\u10e0\u10d0\u10e4": 4632,
  "\u2581pick": 4633,
  "\u2581\u10e3\u10d5\u10da": 4634,
  "\u10e8\u10d8\u10ea": 4635,
  "\u2581Sa": 4636,
  "\u2581appears": 4637,
  "\u2581\u10d4\u10d9": 4638,
  "\u2581\u10db\u10dd\u10ec\u10d0\u10e4\u10d4\u10d4\u10d1\u10d8": 4639,
  "\u2581YOU": 4640,
  "\u2581appeared": 4641,
  "\u2581black": 4642,
  "\u2581prophets": 4643,
  "\u2581straight": 4644,
  "\u2581\u10d8\u10d2\u10e3\u10da\u10d8\u10e1\u10ee\u10db\u10d4\u10d1\u10d0": 4645,
  "\u2581\u10da\u10dd\u10ea\u10d5\u10d8\u10e1": 4646,
  "\u2581\u10e1\u10e2\u10d0\u10e2\u10d8\u10d4\u10d1\u10d8": 4647,
  "ants": 4648,
  "\u10d2\u10e0\u10d0\u10e4\u10d8": 4649,
  "\u10dd\u10da\u10d0": 4650,
  "\u10e0\u10d4\u10d1\u10e3\u10da\u10d8": 4651,
  "\u2581Ta": 4652,
  "\u2581bond": 4653,
  "\u2581l": 4654,
  "\u2581object": 4655,
  "\u2581\u10d7\u10d5\u10d8\u10e1\u10d4\u10d1\u10d0": 4656,
  "\u2581\u10e0\u10e9\u10d4\u10d1\u10d0": 4657,
  "ile": 4658,
  "\u10d3\u10d0\u10d7": 4659,
  "\u2581trip": 4660,
  "\u2581\u10de\u10e0\u10d8\u10dc\u10ea\u10d8\u10de\u10d4\u10d1\u10d8": 4661,
  "\u2581\u10e0\u10d0\u10e0\u10d9\u10f2": 4662,
  "\u2581\u10e0\u10e9\u10d4\u10d5\u10d0\u10e1": 4663,
  "\u2581Being": 4664,
  "\u2581\u10d6\u10dd": 4665,
  "\u2581\u10e1\u10d0\u10e4\u10e3\u10eb\u10d5\u10d4\u10da\u10d8": 4666,
  "\u2581\u10e1\u10ec\u10d0\u10d5\u10da\u10d4\u10d1\u10d4\u10d1\u10d8": 4667,
  "ned": 4668,
  "\u10d1\u10d8\u10dc\u10d0": 4669,
  "\u2581global": 4670,
  "\u2581lies": 4671,
  "\u2581understood": 4672,
  "\u2581\u10d2\u10d0\u10e1\u10d0\u10e6\u10d4\u10d1\u10d8": 4673,
  "ius": 4674,
  "\u10d5\u10da\u10d0": 4675,
  "\u10e3\u10e0\u10e1": 4676,
  "\u2581distance": 4677,
  "\u2581factors": 4678,
  "\u2581judge": 4679,
  "\u2581rules": 4680,
  "\u2581secular": 4681,
  "\u2581\u10da\u10d0\u10de\u10d0\u10e0\u10d0\u10d9\u10d8": 4682,
  "\u2581\u10dd\u10d5": 4683,
  "\u2581\u10dd\u10db": 4684,
  "\u2581pleasure": 4685,
  "\u2581prophecies": 4686,
  "\u2581\u10dd\u10db\u10d8": 4687,
  "\u10d1\u10da\u10d0\u10d3": 4688,
  "\u10d2\u10e0": 4689,
  "\u2581\u10d8\u10e1\u10e0\u10d0\u10d4\u10da\u10d4\u10d1\u10e1": 4690,
  "\u10e7\u10d0\u10da": 4691,
  "\u10f2\u10df\u10e0": 4692,
  "\u2581Ezekiel": 4693,
  "\u2581factor": 4694,
  "\u2581pursue": 4695,
  "\u2581\u10d2\u10d0\u10e1\u10d0\u10d9\u10d5\u10d8\u10e0\u10d8": 4696,
  "\u2581\u10d9\u10d0\u10db": 4697,
  "\u2581\u10d9\u10d0\u10dc\u10dd\u10dc\u10d8\u10e1": 4698,
  "\u2581\u10db\u10d4\u10e2\u10e1": 4699,
  "\u2581\u10db\u10d4\u10e4\u10d8\u10e1": 4700,
  "\u2581\u10e2\u10dd\u10db": 4701,
  "\u2581\u10e7\u10dd\u10e4\u10d8\u10da\u10d0": 4702,
  "\u10dd\u10d1\u10d8\u10e1\u10d0": 4703,
  "\u2581enemy": 4704,
  "\u2581react": 4705,
  "\u2581recently": 4706,
  "\u2581skin": 4707,
  "\u2581\u10e5\u10d5\u10d4\u10e8": 4708,
  "\u2581\u10e8\u10d4\u10d5\u10d0": 4709,
  "\u2581\u10e9\u10d5\u10d4\u10dc\u10d4\u10d1\u10d0": 4710,
  "=": 4711,
  "\u10d8\u10e2\u10d0": 4712,
  "\u10da\u10db\u10d0": 4713,
  "\u10e7\u10d5\u10dc\u10d4\u10dc": 4714,
  "\u2581card": 4715,
  "\u2581contribute": 4716,
  "\u2581helpful": 4717,
  "\u2581quoted": 4718,
  "\u2581teaches": 4719,
  "\u2581\u10d2\u10d0\u10d3\u10d0\u10e3": 4720,
  "\u2581\u10d7\u10d5\u10d0\u10da\u10d8": 4721,
  "\u2581\u10de\u10e0\u10dd\u10d1\u10da\u10d4\u10db\u10d4\u10d1\u10d8\u10e1": 4722,
  "\u2581\u10e1\u10e3\u10e0\u10d0\u10d7\u10d8\u10e1": 4723,
  "\u10ea\u10ee\u10dd": 4724,
  "\u10eb\u10d4\u10d1": 4725,
  "\u25810.": 4726,
  "\u258125.": 4727,
  "\u2581Sam": 4728,
  "\u2581\u10d7\u10d0\u10e7\u10d5\u10d0\u10dc\u10d8": 4729,
  "\u2581\u10d8\u10d4\u10e0\u10e3\u10e1\u10d0\u10da\u10d8\u10db\u10d8\u10e1": 4730,
  "\u2581\u10d8\u10dd\u10e1\u10d4\u10d1\u10d8": 4731,
  "\u2581\u10e5\u10d0\u10da\u10d0\u10e5\u10d8\u10e1": 4732,
  "\u10d3\u10d0\u10db": 4733,
  "\u10d4\u10d1\u10e1\u10d0\u10ea": 4734,
  "\u2581Sometimes": 4735,
  "\u2581eternal": 4736,
  "\u2581\u10d0\u10ec": 4737,
  "\u2581\u10d4\u10d9\u10da\u10d4\u10e1\u10d8\u10d0": 4738,
  "\u2581\u10d8\u10e5\u10dc\u10d4\u10d1\u10d8\u10d0\u10dc": 4739,
  "cent": 4740,
  "\u2581confident": 4741,
  "\u2581discern": 4742,
  "\u2581\u10d0\u10d5\u10da\u10d4\u10dc\u10e1": 4743,
  "\u2581\u10d6\u10d5\u10dc\u10d0": 4744,
  "\u2581\u10dd\u10d1\u10d8\u10d4\u10e5\u10e2\u10d8\u10e1": 4745,
  "\u2581\u10ee\u10d4\u10d3\u10d0\u10d5\u10e1": 4746,
  "yn": 4747,
  "\u2581commanded": 4748,
  "\u2581\u10d1\u10d0\u10e6\u10d0": 4749,
  "\u2581\u10db\u10dd\u10d8\u10d7\u10ee\u10dd\u10d5\u10e1": 4750,
  "\u2581\u10dc\u10d3\u10dd\u10d1\u10d0": 4751,
  "\u2581\u10e4\u10d8\u10d6\u10d8\u10d9\u10e3\u10e0\u10d8": 4752,
  "\u10e3\u10da\u10d4\u10d1\u10d8": 4753,
  "\u2581placed": 4754,
  "\u2581\u10d0\u10e1\u10d0": 4755,
  "\u2581\u10d2\u10d0\u10dc\u10d5\u10d8\u10d7\u10d0\u10e0\u10d4\u10d1\u10d0": 4756,
  "\u2581\u10d2\u10dd\u10d2\u10dd\u10dc\u10d0": 4757,
  "\u2581\u10e8\u10d4\u10db\u10d7\u10ee\u10d5\u10d4\u10d5\u10d4\u10d1\u10d8": 4758,
  "\u10e7\u10d0\u10e0": 4759,
  "\u2581journey": 4760,
  "izing": 4761,
  "\u10db\u10d0\u10d2\u10e0": 4762,
  "\u2581illness": 4763,
  "\u2581\u10d6\u10e6\u10d5\u10d0": 4764,
  "ites": 4765,
  "\u10e2\u10d4\u10e0\u10d4\u10e1": 4766,
  "\u2581discussion": 4767,
  "\u2581encouraging": 4768,
  "\u2581preached": 4769,
  "\u2581\u10d0\u10e6\u10db\u10dd\u10e1\u10d0\u10d5\u10da\u10d4\u10d7": 4770,
  "\u2581\u10df\u10e7\u10de": 4771,
  "\u2581\u10e5\u10d5\u10d4\u10e7\u10dc\u10d8\u10e1": 4772,
  "IN": 4773,
  "\u10d7\u10d0\u10d7\u10d5\u10d8\u10e1": 4774,
  "\u2581En": 4775,
  "\u2581fulfill": 4776,
  "\u2581isn": 4777,
  "\u2581planet": 4778,
  "\u2581\u10db\u10dd\u10dc\u10d0\u10ec\u10d8\u10da\u10d4\u10dd\u10d1\u10d0": 4779,
  "\u2581\u10de\u10d0\u10e1\u10e3\u10ee\u10d8\u10e1\u10db\u10d2\u10d4\u10d1\u10da\u10dd\u10d1": 4780,
  "\u2581\u10ee\u10d8\u10e1": 4781,
  "q": 4782,
  "\u10d4\u10d1\u10e3\u10da\u10d8\u10d0": 4783,
  "\u2581plant": 4784,
  "\u2581purposes": 4785,
  "\u2581\u10e3\u10ec\u10e7\u10dd\u10d1\u10e1": 4786,
  "\u2581\u10e8\u10d4\u10d8\u10ea\u10d0\u10d5\u10e1": 4787,
  "ou": 4788,
  "\u2581Questions": 4789,
  "\u2581minds": 4790,
  "\u2581\u10d3\u10d0\u10d2\u10d8": 4791,
  "\u2581\u10db\u10d3\u10d4": 4792,
  "\u2581Faith": 4793,
  "\u2581national": 4794,
  "\u2581occurred": 4795,
  "\u2581\u10d2\u10d0\u10d5\u10d8\u10d2\u10d4": 4796,
  "\u2581\u10d2\u10e3\u10da\u10ec\u10e0\u10e4\u10d4\u10da\u10d0\u10d3": 4797,
  "\u2581\u10db\u10d0\u10d3\u10da\u10dd\u10d1\u10d0": 4798,
  "\u2581\u10e2\u10d0\u10eb\u10e0\u10d8\u10e1": 4799,
  "\u10e6\u10e3\u10de": 4800,
  "\u2581England": 4801,
  "\u2581associated": 4802,
  "\u2581male": 4803,
  "\u2581na": 4804,
  "\u2581\u10d9\u10d8\u10d7\u10ee\u10d5\u10d0\u10d6\u10d4": 4805,
  "\u2581\u10db\u10d3\u10d2\u10dd\u10db\u10d0\u10e0\u10d4\u10dd\u10d1\u10d8\u10e1": 4806,
  "\u2581\u10e5\u10d0\u10da\u10e1": 4807,
  "\u2581\u10ea\u10d3\u10d8\u10da\u10dd\u10d1\u10d4\u10dc": 4808,
  "\u10e0\u10d8\u10ea\u10ee": 4809,
  "\u2581Gra": 4810,
  "\u2581studied": 4811,
  "\u2581style": 4812,
  "\u2581wild": 4813,
  "\u2581\u10d0\u10e6\u10d3\u10d2\u10dd\u10db\u10d0": 4814,
  "\u2581\u10d8\u10db\u10d8\u10e1\u10d7\u10d5\u10d8\u10e1": 4815,
  "wi": 4816,
  "\u10d0\u10db\u10d4\u10d1\u10e0": 4817,
  "\u10da\u10d4\u10e1": 4818,
  "\u2581April": 4819,
  "\u2581Body": 4820,
  "\u2581Out": 4821,
  "\u2581territory": 4822,
  "\u2581\u10db\u10db\u10d0\u10e0\u10d7\u10d5\u10d4\u10da\u10dd\u10d1\u10d8\u10e1": 4823,
  "15": 4824,
  "end": 4825,
  "\u10d1\u10e7\u10de": 4826,
  "\u10d3\u10d0\u10e0": 4827,
  "\u10ea\u10d0\u10d3\u10d4": 4828,
  "\u2581Has": 4829,
  "\u2581qu": 4830,
  "\u2581\u10d2\u10d6\u10d8\u10d7": 4831,
  "\u2581\u10db\u10d0\u10e6\u10d0\u10da\u10d8": 4832,
  "#": 4833,
  "ai": 4834,
  "ress": 4835,
  "\u10d9\u10d0\u10de": 4836,
  "\u2581belief": 4837,
  "\u2581cold": 4838,
  "\u2581science": 4839,
  "\u2581\u10e3\u10ea\u10dc\u10dd\u10d1\u10d8": 4840,
  "\u2581\u10e7\u10dd\u10e4\u10dc\u10d0": 4841,
  "\u2581Asia": 4842,
  "\u2581discussed": 4843,
  "\u2581handle": 4844,
  "\u2581\u10d3\u10d4\u10d3": 4845,
  "\u2581\u10de\u10d8\u10dd\u10dc\u10d4\u10e0\u10d0\u10d3": 4846,
  "\u2581depend": 4847,
  "\u2581ship": 4848,
  "\u2581terms": 4849,
  "\u2581\u10d2\u10d0\u10ee\u10e1\u10d4\u10dc\u10d4\u10d1\u10d8\u10e1": 4850,
  "\u2581\u10d6\u10e0\u10d3\u10d0": 4851,
  "\u2581\u10e7\u10dd\u10d5\u10d4\u10da\u10d3\u10e6\u10d4": 4852,
  "\u2581Car": 4853,
  "\u2581\u10d7\u10db\u10d0\u10db\u10d5": 4854,
  "\u2581\u10d9\u10d0\u10da\u10d4\u10dc\u10d3\u10d0\u10e0\u10d8": 4855,
  "\u2581\u10dc\u10d0\u10d9\u10da\u10d4\u10d1\u10d8": 4856,
  "\u2581\u10e1\u10d4\u10e0": 4857,
  "\u2581\u10ec\u10d0\u10e0\u10db\u10dd\u10d3\u10d2\u10d4\u10dc\u10d0": 4858,
  "\u2581divorce": 4859,
  "\u2581prospect": 4860,
  "\u2581younger": 4861,
  "\u2581\u10e5\u10d5\u10d4\u10e7\u10d0\u10dc\u10d0": 4862,
  "\u2581\u10f0\u10e7\u10d0\u10d5\u10d3\u10d0": 4863,
  "\u10d5\u10d8\u10d0\u10dc": 4864,
  "\u2581community": 4865,
  "\u2581distress": 4866,
  "\u2581easier": 4867,
  "\u2581escape": 4868,
  "\u2581space": 4869,
  "\u2581\u10d0\u10e6\u10db": 4870,
  "\u2581\u10d3\u10e0\u10dd\u10d3\u10d0\u10d3\u10e0\u10dd": 4871,
  "\u2581\u10db\u10dd\u10ee\u10d3\u10d4\u10d1\u10d0": 4872,
  "\u2581\u10e9": 4873,
  "\u2581\u10f1\u10dc\u10d0": 4874,
  "\u10e3\u10e4\u10d0\u10da": 4875,
  "\u2581listed": 4876,
  "\u2581\u10db\u10d8\u10e1\u10d2\u10d0\u10dc": 4877,
  "\u10d3\u10d0\u10d2": 4878,
  "\u10e3\u10d7\u10e0\u10d5": 4879,
  "\u2581Australia": 4880,
  "\u2581gun": 4881,
  "\u2581indicate": 4882,
  "\u2581vi": 4883,
  "\u2581\u10e1\u10db": 4884,
  "\u2581\u10e8\u10d5\u10d8\u10da\u10e1": 4885,
  "cc": 4886,
  "\u10d9\u10e0\u10d0\u10d5": 4887,
  "\u10ec\u10e7\u10d5\u10d4\u10e2\u10d8": 4888,
  "\u2581Ki": 4889,
  "\u2581sad": 4890,
  "\u2581\u10db\u10dd\u10f0\u10e7\u10d5\u10d0": 4891,
  "\u10e1\u10ee\u10d5\u10d0": 4892,
  "\u10e3\u10dc\u10d0": 4893,
  "\u2581Matt": 4894,
  "\u2581\u10d8\u10d6\u10e0\u10d3\u10d4\u10d1\u10d0": 4895,
  "\u2581\u10e3\u10e0\u10d7\u10d8\u10d4\u10e0\u10d7\u10dd\u10d1\u10d0\u10e1": 4896,
  "\u2581\u10e8\u10d4\u10dc\u10d0\u10e0\u10e9\u10e3\u10dc\u10d4\u10d1\u10d0": 4897,
  "\u10d6\u10d5\u10dc": 4898,
  "\u10e8\u10da": 4899,
  "\u2581Exodus": 4900,
  "\u2581growth": 4901,
  "\u2581length": 4902,
  "\u2581\u10e5\u10d5\u10d4\u10e7\u10dc\u10d4\u10d1\u10e8\u10d8": 4903,
  "\u2581\u10e6\u10d5\u10d7\u10d8\u10e1\u10d7\u10d5\u10d8\u10e1": 4904,
  "\u10e4\u10d9\u10d0": 4905,
  "\u2581color": 4906,
  "\u2581hot": 4907,
  "\u2581remains": 4908,
  "\u2581\u10d0\u10d6\u10e0\u10d4\u10d1\u10d8": 4909,
  "\u2581\u10d2\u10d0\u10ee\u10e1\u10dc\u10d0": 4910,
  "\u2581\u10e7\u10dd\u10d5\u10d4\u10da\u10d2\u10d5\u10d0\u10e0\u10d8": 4911,
  "\u2581Deuteronomy": 4912,
  "\u2581consideration": 4913,
  "\u2581translated": 4914,
  "\u2581worshippers": 4915,
  "\u2581\u10d6\u10d7\u10d2\u10f2\u10e0": 4916,
  "\u2581\u10d7\u10d0\u10e7\u10d5\u10d0\u10dc\u10d8\u10e1\u10db\u10ea\u10d4\u10db\u10da\u10d4\u10d1": 4917,
  "\u2581\u10dd\u10ef\u10d0\u10ee\u10e3\u10e0\u10d8": 4918,
  "\u10d7\u10d5\u10da\u10d8": 4919,
  "\u25811914": 4920,
  "\u2581\u10da\u10dd\u10ea\u10d5\u10d8\u10d7": 4921,
  "\u2581\u10dd\u10d3\u10d4\u10e1\u10db\u10d4": 4922,
  "\u258143": 4923,
  "\u2581v": 4924,
  "\u2581wealth": 4925,
  "\u2581\u10d2\u10d0\u10d6": 4926,
  "\u2581\u10de\u10dd\u10d5\u10dc\u10d0": 4927,
  "\u2581evident": 4928,
  "\u2581meal": 4929,
  "\u2581total": 4930,
  "\u2581\u10d1\u10e0\u10eb\u10dd\u10da\u10d0": 4931,
  "\u2581\u10dc\u10d0\u10d7\u10df\u10e0\u10d7\u10dc\u10d0": 4932,
  "\u2581\u10e0\u10d5\u10d1\u10d5": 4933,
  "!\u201c.": 4934,
  "\u10d4\u10da\u10d8\u10d0": 4935,
  "\u10e2\u10db\u10d0": 4936,
  "\u10ec\u10d8\u10d0": 4937,
  "\u2581ha": 4938,
  "\u2581mere": 4939,
  "\u2581religions": 4940,
  "\u2581\u10e4\u10d8\u10e5\u10e0\u10dd\u10d1\u10d3\u10d0": 4941,
  "und": 4942,
  "\u10d5\u10dd\u10d7": 4943,
  "\u10de\u10dd\u10d5\u10d4": 4944,
  "\u2581Memorial": 4945,
  "\u2581Sha": 4946,
  "\u2581chose": 4947,
  "\u2581demons": 4948,
  "\u2581forces": 4949,
  "\u2581\u10d2\u10d0\u10d5\u10e3": 4950,
  "\u2581\u10ec\u10d4\u10e0\u10d8\u10da\u10d4\u10d1\u10d8\u10e1": 4951,
  "\u2581Listen": 4952,
  "\u2581difference": 4953,
  "\u2581solution": 4954,
  "\u2581\u10d9\u10e3\u10e0": 4955,
  "\u2581\u10df\u10e1": 4956,
  "\u10d5\u10de": 4957,
  "\u258113,": 4958,
  "\u2581Never": 4959,
  "\u2581effects": 4960,
  "\u2581loves": 4961,
  "\u2581trained": 4962,
  "\u2581wind": 4963,
  "\u2581\u10d2\u10d0\u10db\u10dd\u10e3": 4964,
  "\u2581\u10d9\u10d0\u10ea\u10d8\u10e1": 4965,
  "\u2581\u10d9\u10d8\u10da\u10dd\u10db\u10d4\u10e2\u10e0\u10d8": 4966,
  "\u2581\u10db\u10d8\u10d5\u10d0": 4967,
  "\u2581\u10dd\u10de\u10d0\u10d2": 4968,
  "\u2581\u10e3\u10db": 4969,
  "\u2581\u10e8\u10d4\u10db\u10dd\u10e5\u10db\u10d4\u10d3\u10d8": 4970,
  "\u2581caring": 4971,
  "\u2581tears": 4972,
  "\u2581\u10d0\u10e0\u10e1\u10d4\u10d1\u10e3\u10da": 4973,
  "\u2581\u10d2\u10d0\u10ea\u10d8\u10da\u10d4\u10d1": 4974,
  "\u2581\u10d2\u10d5\u10d8\u10e9\u10d5\u10d4\u10dc\u10d4\u10d1\u10e1": 4975,
  "\u2581\u10d3\u10f2\u10d4\u10d7\u10dc\u10d7": 4976,
  "\u2581\u10db\u10d4\u10e2\u10e0\u10d8": 4977,
  "\u2581Brooklyn": 4978,
  "\u2581accident": 4979,
  "\u2581honest": 4980,
  "\u2581overseers": 4981,
  "\u2581private": 4982,
  "\u2581supposed": 4983,
  "\u2581\u10d5\u10ea\u10ee\u10dd\u10d5\u10e0\u10dd\u10d1\u10d7": 4984,
  "\u2581\u10d9\u10f2\u10da\u10d9\u10f2": 4985,
  "\u2581\u10db\u10d0\u10da\u10d0": 4986,
  "\u2581\u10db\u10ee\u10e0\u10d8\u10d3\u10d0\u10dc": 4987,
  "\u2581\u10e1\u10d0\u10d6\u10dd\u10d2\u10d0\u10d3\u10dd\u10d4\u10d1\u10d8\u10e1": 4988,
  "\u2581birds": 4989,
  "\u2581riches": 4990,
  "\u2581scene": 4991,
  "\u2581season": 4992,
  "\u2581\u10d3\u10dd": 4993,
  "\u2581\u10d4\u10d2\u10d0": 4994,
  "\u2581\u10e4\u10d0\u10e5\u10e2\u10dd\u10d1\u10e0\u10d8\u10d5\u10d0\u10d3": 4995,
  "\u10dc\u10f2\u10e0\u10f2": 4996,
  "\u2581extent": 4997,
  "\u2581heavy": 4998,
  "\u2581international": 4999,
  "\u2581refers": 5000,
  "\u2581\u10d3\u10d0\u10d5\u10d8\u10d7\u10db\u10d0": 5001,
  "\u2581\u10d3\u10d0\u10e4\u10d8\u10e5\u10e0\u10d3\u10d8\u10d7": 5002,
  "\u2581\u10e1\u10d0\u10e5\u10db\u10d4\u10e8\u10d8": 5003,
  "\u2581\u10e1\u10df": 5004,
  "responsibilities": 5005,
  "\u10d1\u10dd\u10d3\u10dc\u10d4\u10dc": 5006,
  "\u10d7\u10d0\u10d5\u10e1": 5007,
  "\u2581powers": 5008,
  "\u2581wasn": 5009,
  "\u2581\u10d0\u10de": 5010,
  "\u2581\u10db\u10d8\u10d5\u10d8\u10e6\u10d4\u10d1\u10d7": 5011,
  "\u10e0\u10d7\u10da": 5012,
  "\u2581endeavor": 5013,
  "\u2581endurance": 5014,
  "\u2581\u10d1\u10d4\u10d3\u10dc\u10d8\u10d4\u10e0\u10d4\u10d1\u10d0": 5015,
  "\u2581\u10d5\u10d8\u10d3\u10d4\u10dd": 5016,
  "\u2581\u10d8\u10e1\u10e0\u10d0\u10d4\u10da": 5017,
  "\u2581\u10de\u10d0\u10e2\u10d8\u10d5\u10e1": 5018,
  "ex": 5019,
  "ua": 5020,
  "\u10d9\u10d0\u10ea": 5021,
  "\u10df\u10e0\u10d2\u10d0": 5022,
  "\u10e6\u10f2": 5023,
  "\u2581offspring": 5024,
  "\u2581patience": 5025,
  "\u2581promote": 5026,
  "\u2581team": 5027,
  "\u2581\u10d7\u10d0\u10d5\u10db\u10d3\u10d0\u10d1\u10da\u10dd\u10d1\u10d0": 5028,
  "\u2581\u10d7\u10e3\u10d9\u10d8": 5029,
  "\u2581\u10dd\u10de\u10d0\u10d2\u10d7": 5030,
  "\u2581\u10e1\u10d8\u10dc\u10d0\u10d7\u10da\u10d4": 5031,
  "uff": 5032,
  "\u258141": 5033,
  "\u2581Ruth": 5034,
  "\u2581economic": 5035,
  "\u2581happens": 5036,
  "\u2581press": 5037,
  "\u2581rate": 5038,
  "\u2581yeah": 5039,
  "\u2581\u10d4\u10d5\u10dd\u10da\u10e3\u10e8\u10d4\u10dc": 5040,
  "\u2581\u10d7\u10d5\u10d4": 5041,
  "\u2581\u10e4\u10e0\u10f2": 5042,
  "\u2581\u10f2\u10dc": 5043,
  "\u10e2\u10d4\u10dc": 5044,
  "\u2581entered": 5045,
  "\u2581increased": 5046,
  "\u2581pa": 5047,
  "\u2581\u10d2\u10d0\u10dc\u10e1\u10ee\u10d5\u10d0\u10d5\u10d4\u10d1\u10d8\u10d7": 5048,
  "\u2581\u10d7\u10d3\u10de\u10d0": 5049,
  "\u2581\u10db\u10d8\u10db\u10d3\u10d4\u10d5\u10e0\u10d4\u10d1\u10d8": 5050,
  "\u2581\u10db\u10d8\u10db\u10d3\u10d4\u10d5\u10e0\u10d4\u10d1\u10e1": 5051,
  "\u2581\u10e1\u10d0\u10dd\u10ea\u10d0\u10e0\u10d8": 5052,
  "\u2581\u10e3\u10d1\u10e0\u10d0\u10da\u10dd": 5053,
  "\u10dc\u10d5\u10df": 5054,
  "\u10dd\u10d9": 5055,
  "\u2581decades": 5056,
  "\u2581\u10e1\u10d0\u10d9\u10d5\u10d4\u10d1\u10d8": 5057,
  "air": 5058,
  "oc": 5059,
  "\u2581seriously": 5060,
  "\u2581zeal": 5061,
  "\u2581\u10db\u10dd\u10ee\u10e1\u10d4\u10dc\u10d4\u10d1\u10d0": 5062,
  "\u2581\u10dc\u10d8\u10e8\u10d0\u10dc\u10d8": 5063,
  "gr": 5064,
  "ology": 5065,
  "su": 5066,
  "\u2581Earth": 5067,
  "\u2581\u10d2\u10d0\u10e4\u10e0\u10d7\u10ee\u10d8\u10da\u10d4\u10d1\u10d0": 5068,
  "\u2581\u10db\u10e7": 5069,
  "ier": 5070,
  "uch": 5071,
  "\u2581Learn": 5072,
  "\u2581ch": 5073,
  "\u2581describe": 5074,
  "\u2581\u10d0\u10e0\u10e9\u10d4\u10d5\u10d0": 5075,
  "\u2581\u10d9\u10d0\u10dc\u10dd\u10dc\u10d4\u10d1\u10d8": 5076,
  "\u2581\u10db\u10dd\u10d0\u10ee\u10d3\u10d8\u10dc\u10d0": 5077,
  "\u2581\u10e1\u10d7\u10ee\u10dd\u10d5": 5078,
  "\u2581\u10f3\u10f2\u10de\u10d0": 5079,
  "\u2581beauty": 5080,
  "\u2581circuit": 5081,
  "\u2581\u10d6\u10dd\u10d2\u10db\u10d0": 5082,
  "\u2581\u10ec\u10da\u10d0\u10db\u10d3\u10d4": 5083,
  "sk": 5084,
  "\u10e3\u10d9": 5085,
  "\u258117,": 5086,
  "\u2581Mexico": 5087,
  "\u2581calling": 5088,
  "\u2581cross": 5089,
  "\u2581scientists": 5090,
  "\u2581stopped": 5091,
  "\u2581\u10d0\u10da\u10d9\u10dd\u10f0\u10dd\u10da": 5092,
  "\u2581\u10d0\u10db\u10d0\u10e1\u10d7\u10d0\u10dc\u10d0\u10d5\u10d4": 5093,
  "\u2581\u10d7\u10df\u10d9\u10d0": 5094,
  "\u2581\u10d9\u10dd\u10da": 5095,
  "\u2581\u10db\u10d0\u10de": 5096,
  "\u2581\u10e8\u10d4\u10d4\u10e0\u10d7\u10d4\u10d1\u10e3\u10da": 5097,
  "\u10d4\u10d1\u10d3\u10d8": 5098,
  "\u10d7\u10d5\u10d0\u10da\u10d8": 5099,
  "\u2581forms": 5100,
  "\u2581labor": 5101,
  "\u2581separate": 5102,
  "\u2581\u10e8\u10dd\u10e0\u10e1": 5103,
  "\u10e2\u10dd\u10dc\u10d8": 5104,
  "\u2581Hu": 5105,
  "\u2581applied": 5106,
  "\u2581boat": 5107,
  "\u2581\u10d4\u10db": 5108,
  "\u2581\u10d4\u10e0\u10d7\u10d2\u10e3\u10da\u10d0\u10d3": 5109,
  "row": 5110,
  "\u2581partner": 5111,
  "\u2581\u10d2\u10d7\u10ee\u10dd\u10d5\u10d7": 5112,
  "\u2581\u10ea\u10ee\u10dd\u10d5\u10e0\u10dd\u10d1\u10e1": 5113,
  "\u10d2\u10f2\u10de": 5114,
  "\u2581maybe": 5115,
  "\u2581\u10d0\u10ee\u10e1\u10dc\u10d0": 5116,
  "\u2581\u10db\u10d4\u10e2\u10d8\u10ea": 5117,
  "\u2581\u10db\u10dd\u10d8\u10dc\u10d0\u10d7\u10da\u10d0": 5118,
  "\u10dd\u10d5\u10d0\u10dc": 5119,
  "\u25811998": 5120,
  "\u2581drawn": 5121,
  "\u2581fault": 5122,
  "\u2581ideas": 5123,
  "\u2581impressed": 5124,
  "\u2581\u10d3\u10d4\u10d3\u10d0\u10db": 5125,
  "\u2581\u10d7\u10d0\u10e7\u10d5\u10d0\u10dc\u10d8\u10e1\u10ea\u10d4\u10db\u10d0": 5126,
  "\u2581\u10d8\u10ea\u10dc\u10dd\u10d1": 5127,
  "\u2581\u10db\u10d0\u10e0\u10d7\u10d0\u10da\u10d8": 5128,
  "\u2581\u10db\u10d4\u10e3\u10e6\u10da\u10d4\u10e1": 5129,
  "\u2581\u10dc\u10d0\u10d7\u10da\u10d0\u10d3": 5130,
  "\u2581\u10df\u10e0\u10d0\u10de": 5131,
  "\u2581\u10df\u10e3\u10e0\u10dc\u10d0\u10da": 5132,
  "\u2581\u10ec\u10d0\u10d8\u10d9\u10d8\u10d7\u10ee\u10d4\u10d7": 5133,
  "\u10d0\u10d9\u10d4\u10d7\u10d4": 5134,
  "\u10d5\u10e0\u10d8\u10e1": 5135,
  "\u10dc\u10d2\u10d8": 5136,
  "\u2581\u10d9\u10f2\u10d7\u10e0\u10f2": 5137,
  "\u2581\u10e8\u10d4\u10ee\u10d4\u10d3\u10e3\u10da\u10d4\u10d1\u10d0": 5138,
  "\u2581\u10ec\u10d0\u10e0\u10db\u10d0\u10e0\u10d7": 5139,
  "gar": 5140,
  "\u2581cha": 5141,
  "\u2581rid": 5142,
  "\u2581setting": 5143,
  "\u2581superior": 5144,
  "\u2581\u10d2\u10dd\u10dc\u10d8\u10d5\u10e0\u10e3\u10da\u10d8": 5145,
  "\u2581\u10db\u10d3\u10d8\u10dc\u10d0\u10e0\u10d4": 5146,
  "\u2581\u10e2\u10d4\u10e0\u10d8\u10e2\u10dd\u10e0\u10d8\u10d0\u10d6\u10d4": 5147,
  "\u2581\u10e5\u10db\u10dc\u10d8\u10da\u10d4\u10d1\u10d0": 5148,
  "\u2581\u10e8\u10d4\u10db\u10d8\u10eb\u10da\u10d8\u10d0": 5149,
  "bu": 5150,
  "but": 5151,
  "\u10d7\u10dc": 5152,
  "\u2581File": 5153,
  "\u2581Furthermore": 5154,
  "\u2581September": 5155,
  "\u2581feels": 5156,
  "\u2581formed": 5157,
  "\u2581pride": 5158,
  "\u2581\u10e4\u10e3\u10da\u10d8\u10e1": 5159,
  "hu": 5160,
  "istic": 5161,
  "\u2581threat": 5162,
  "\u2581\u10d0\u10e6\u10eb\u10e0\u10d0": 5163,
  "\u2581\u10d2\u10d5\u10d8\u10dc\u10d3\u10d0": 5164,
  "\u2581\u10db\u10d8\u10da\u10d8\u10dd\u10dc\u10d8": 5165,
  "\u2581\u10db\u10dd\u10ec": 5166,
  "ons": 5167,
  "ped": 5168,
  "\u10e0\u10d0\u10e0\u10d0": 5169,
  "\u10e1\u10d0\u10d7\u10d5\u10d8\u10e1": 5170,
  "\u10e1\u10e2\u10e3\u10e0": 5171,
  "\u2581Land": 5172,
  "\u2581insight": 5173,
  "\u2581site": 5174,
  "\u2581surface": 5175,
  "not": 5176,
  "\u10d2\u10e0\u10eb\u10dc\u10dd": 5177,
  "\u10d3\u10d4\u10dc\u10d8": 5178,
  "\u2581Ju": 5179,
  "\u2581Vi": 5180,
  "\u2581approval": 5181,
  "\u2581divided": 5182,
  "\u2581dream": 5183,
  "\u2581financial": 5184,
  "\u2581ruler": 5185,
  "\u2581\u10d3\u10d4\u10d3\u10d0\u10db\u10d8\u10ec\u10d0\u10e1": 5186,
  "\u2581\u10dc\u10d5\u10d9\u10d0": 5187,
  "\u2581\u10dc\u10e3\u10d7\u10e3": 5188,
  "\u10db\u10e6\u10d4\u10e0": 5189,
  "\u2013": 5190,
  "\u2581assured": 5191,
  "\u2581dark": 5192,
  "\u2581\u10d3\u10e3": 5193,
  "jo": 5194,
  "ng": 5195,
  "\u10d5\u10ea\u10d4\u10db": 5196,
  "\u2581Russian": 5197,
  "\u2581charge": 5198,
  "\u2581evidently": 5199,
  "\u2581north": 5200,
  "\u2581shared": 5201,
  "\u2581\u10d7\u10d5\u10d0\u10da": 5202,
  "\u2581\u10d9\u10dd\u10e8\u10d9\u10d8": 5203,
  "\u2581\u10db\u10e3\u10e8\u10d0\u10dd\u10d1\u10d0": 5204,
  "\u2581\u10e5\u10e0\u10d8\u10e1\u10e2\u10d4\u10db": 5205,
  "\u2581\u10ec\u10d4\u10da\u10d6\u10d4": 5206,
  "\u2581essential": 5207,
  "\u2581kid": 5208,
  "\u2581wall": 5209,
  "\u2581\u10d2\u10d0\u10e0\u10d4\u10d7": 5210,
  "\u2581\u10d2\u10d7\u10d6": 5211,
  "\u2581\u10db\u10d8\u10d7\u10ee\u10e0\u10d0": 5212,
  "\u2581\u10e8\u10d4\u10db\u10dd\u10e5\u10db\u10d4\u10d3\u10d8\u10e1": 5213,
  "\u10d3\u10d4\u10d1\u10e1": 5214,
  "\u25812001": 5215,
  "\u2581conflict": 5216,
  "\u2581determine": 5217,
  "\u2581emotions": 5218,
  "\u2581perform": 5219,
  "\u2581\u10d0\u10d5\u10d0\u10d3\u10db\u10e7\u10dd\u10e4": 5220,
  "\u2581\u10db\u10d4\u10e1\u10d8\u10d0": 5221,
  "\u2581\u10db\u10d8\u10e6\u10d4\u10d1\u10d8\u10e1": 5222,
  "\u2581\u10db\u10db\u10d0\u10e0\u10d7\u10d5\u10d4\u10da": 5223,
  "\u2581\u10e0\u10dd\u10db\u10d4\u10da\u10d6\u10d4\u10ea": 5224,
  "\u2581\u10e3\u10d1\u10d4\u10d3\u10e3\u10e0\u10d4\u10d1\u10d0": 5225,
  "\u2581\u10ee\u10e1\u10dc\u10d0": 5226,
  "\u10df\u10ec": 5227,
  "\u10e2\u10d4\u10d1\u10d0": 5228,
  "\u2581grand": 5229,
  "\u2581th": 5230,
  "\u2581\u10d8\u10d0": 5231,
  "\u258119,": 5232,
  "\u2581OF": 5233,
  "\u2581dad": 5234,
  "\u2581\u10d0\u10e1\u10ec\u10d0\u10d5\u10da\u10d8\u10d3\u10d0": 5235,
  "\u2581\u10d2\u10d0\u10dc\u10d5\u10d8\u10ee\u10d8\u10da\u10d0\u10d5\u10d7": 5236,
  "\u2581\u10d3\u10d0\u10d8\u10ec\u10e7\u10d4\u10e1": 5237,
  "\u2581\u10db\u10dd\u10d6\u10d0\u10e0\u10d3": 5238,
  "\u2581\u10e8\u10d4\u10d4\u10e0\u10d7\u10d4\u10d1\u10e3\u10da\u10d8": 5239,
  "\u2581Both": 5240,
  "\u2581Tim": 5241,
  "\u2581subjects": 5242,
  "\u2581\u10d4\u10d2\u10d5": 5243,
  "\u2581\u10db\u10ec": 5244,
  "\u2581\u10e5\u10db\u10d0\u10e0\u10e1": 5245,
  "\u10d7\u10f1": 5246,
  "\u2581finding": 5247,
  "\u2581joined": 5248,
  "\u2581stone": 5249,
  "\u2581weight": 5250,
  "\u2581\u10dc\u10dd": 5251,
  "\u2581\u10de\u10e0\u10d4": 5252,
  "\u2581\u10e2\u10dd\u10da\u10d8": 5253,
  "\u2581\u10ea\u10ee\u10e0\u10d8\u10da\u10d8": 5254,
  "My": 5255,
  "ik": 5256,
  "\u10d2\u10d7\u10dc": 5257,
  "\u10d7\u10de\u10d0": 5258,
  "\u2581Galatians": 5259,
  "\u2581Teach": 5260,
  "\u2581poverty": 5261,
  "\u2581\u10d0\u10ee\u10d0\u10da\u10d2\u10d0\u10d6\u10e0\u10d3\u10d4\u10d1\u10d8\u10e1": 5262,
  "\u2581\u10d3\u10d0\u10d9\u10d0\u10e0\u10d2\u10d0": 5263,
  "\u2581\u10db\u10dd\u10db\u10e1\u10d0\u10ee\u10e3\u10e0\u10d4": 5264,
  "\u2581\u10dc\u10d5\u10d9\u10f2": 5265,
  "\u2581\u10e1\u10d0\u10db\u10d0\u10e0": 5266,
  "\u2581\u10e7\u10e3\u10e0": 5267,
  "\u10d8\u10dd\u10dc": 5268,
  "\u10eb\u10d8\u10e0": 5269,
  "\u10ec\u10d4\u10e0\u10d0": 5270,
  "\u258144": 5271,
  "\u2581brochure": 5272,
  "\u2581foundation": 5273,
  "\u2581\u10d0\u10e0\u10d0\u10d4\u10e0\u10d7": 5274,
  "\u2581\u10db\u10db\u10d0\u10e0\u10d7\u10d5\u10d4\u10da\u10d8": 5275,
  "\u2581\u10e0\u10de\u10d7": 5276,
  "\u2581\u10e9\u10d5\u10d4\u10dc\u10d2\u10d0\u10dc": 5277,
  "RE": 5278,
  "jw": 5279,
  "\u10d7\u10dd": 5280,
  "\u2581City": 5281,
  "\u2581December": 5282,
  "\u2581\u10d2\u10d5\u10d0\u10e0\u10ec\u10db\u10e3\u10dc\u10d4\u10d1\u10e1": 5283,
  "\u2581\u10d3\u10d0\u10d2\u10d4\u10ee\u10db\u10d0\u10e0\u10d4\u10d1\u10d0\u10d7": 5284,
  "\u2581\u10db\u10dd\u10dc\u10d0\u10ec\u10d8\u10da\u10d4": 5285,
  "\u2581\u10e9\u10d4\u10db\u10d6\u10d4": 5286,
  "ja": 5287,
  "\u2581Ps": 5288,
  "\u2581pen": 5289,
  "\u2581satisfaction": 5290,
  "ey": 5291,
  "name": 5292,
  "\u10d5\u10d0\u10d3": 5293,
  "\u10da\u10d4\u10d1\u10d8\u10d7": 5294,
  "\u10e1\u10d8\u10ea\u10d8\u10da\u10d8": 5295,
  "\u258123:": 5296,
  "\u2581Govern": 5297,
  "\u2581details": 5298,
  "\u2581reaction": 5299,
  "\u2581\u10d3\u10d0\u10d8\u10dc\u10d0\u10ee\u10d0": 5300,
  "\u2581\u10d8\u10e7\u10d4\u10dc\u10d4\u10d1\u10d4\u10dc": 5301,
  "\u2581\u10db\u10d4\u10e0\u10d4": 5302,
  "\u10d1\u10d4\u10d3\u10dc\u10d8\u10d4\u10e0": 5303,
  "\u2581Kings": 5304,
  "\u2581species": 5305,
  "\u2581\u10d9\u10d0\u10f1\u10d0\u10f3": 5306,
  "\u2581\u10d9\u10d7": 5307,
  "\u10db\u10eb\u10d8\u10db\u10d4": 5308,
  "\u2581adult": 5309,
  "\u2581i": 5310,
  "\u2581spouse": 5311,
  "\u2581\u10d9\u10d0\u10ea\u10e1": 5312,
  "\u2581\u10db\u10d0\u10dc\u10d0\u10db\u10d3\u10d4": 5313,
  "\u10e0\u10d0\u10dc": 5314,
  "\u2581higher": 5315,
  "\u2581model": 5316,
  "\u2581persons": 5317,
  "\u2581treated": 5318,
  "\u2581vast": 5319,
  "\u2581\u10d3\u10d0\u10e0\u10e9\u10d4\u10dc\u10d8\u10da\u10d8": 5320,
  "\u2581\u10db\u10dd\u10e1\u10db\u10d4\u10dc\u10d0": 5321,
  "\u2581\u10db\u10e3\u10ee\u10da\u10d4\u10d1\u10d8": 5322,
  "\u10d5\u10d3\u10d8\u10d7": 5323,
  "\u10e3\u10db\u10ef\u10dd\u10d1\u10d4\u10e1": 5324,
  "\u2581400": 5325,
  "\u2581Te": 5326,
  "\u2581Translation": 5327,
  "\u2581healthy": 5328,
  "\u2581\u10d2\u10d0\u10d3\u10d0\u10d4": 5329,
  "\u2581\u10db\u10d7\u10da\u10d8\u10d0\u10dc\u10d0\u10d3": 5330,
  "\u2581\u10e1\u10e0\u10e3\u10da": 5331,
  "\u10e3\u10da\u10d0": 5332,
  "\u258115]": 5333,
  "\u2581\u10dd\u10de\u10d5\u10f1": 5334,
  "\u2581guess": 5335,
  "\u2581\u10d0\u10db\u10df\u10d0\u10db\u10d0\u10d3": 5336,
  "\u2581\u10d2\u10d0\u10db\u10dd\u10ea\u10ee\u10d0\u10d3\u10d4\u10d1\u10d8\u10e1": 5337,
  "\u2581\u10dd\u10f2\u10df\u10da\u10d5": 5338,
  "\u2581\u10e0\u10ef\u10e3\u10da\u10d8\u10e1": 5339,
  "\u2581\u10ef\u10d2\u10e3\u10e4": 5340,
  "\u2581\u10f1\u10d0\u10d4": 5341,
  "\u10d4\u10d1\u10da\u10d4\u10d1\u10d8": 5342,
  "\u10db\u10d0\u10e0\u10d7\u10d0": 5343,
  "\u10dd\u10d1\u10d8\u10da\u10d8": 5344,
  "\u258155": 5345,
  "\u2581instruction": 5346,
  "\u2581\u10d2\u10d0\u10dc\u10d0\u10d3\u10d2\u10e3\u10e0\u10d4\u10d1\u10d0": 5347,
  "\u2581\u10d5\u10d4\u10e6\u10d0\u10e0": 5348,
  "\u2581\u10e8\u10d4\u10d8\u10eb\u10da\u10d4\u10d1\u10dd\u10d3\u10d0": 5349,
  "\u2581\u10ec\u10e3\u10d7\u10d8": 5350,
  "ill": 5351,
  "\u2581Bar": 5352,
  "\u2581Internet": 5353,
  "\u2581displayed": 5354,
  "\u2581paper": 5355,
  "\u2581views": 5356,
  "\u2581\u10db\u10dd\u10db\u10d8": 5357,
  "\u2581\u10db\u10e3\u10ee\u10da": 5358,
  "\u2581\u10e1\u10ee\u10d4\u10e3\u10da\u10d8\u10e1": 5359,
  "\u2581\u10f1\u10dc\u10d0\u10d5": 5360,
  "nce": 5361,
  "\u10d6\u10d0\u10dc": 5362,
  "\u10e0\u10d4\u10d1\u10dd\u10d3\u10d0": 5363,
  "\u2581Gospel": 5364,
  "\u2581calm": 5365,
  "\u2581contrary": 5366,
  "\u2581immoral": 5367,
  "\u2581operation": 5368,
  "\u2581tend": 5369,
  "\u2581troubled": 5370,
  "\u2581video": 5371,
  "\u2581\u10d2\u10d0\u10e0\u10e8\u10d4\u10db\u10dd": 5372,
  "\u2581\u10d8\u10ea\u10d8\u10d0\u10dc": 5373,
  "\u2581\u10dc\u10d0\u10d9\u10da\u10d4\u10d1\u10d0\u10d3": 5374,
  "\u2581\u10dd\u10e0\u10d2\u10d0\u10dc\u10d8\u10d6\u10d0\u10ea\u10d8\u10d8\u10e1": 5375,
  "\u2581\u10dd\u10e0\u10ef\u10d4\u10e0": 5376,
  "\u2581\u10de\u10d0\u10d1\u10f2\u10e0\u10d7": 5377,
  "ose": 5378,
  "\u2581below": 5379,
  "\u2581committed": 5380,
  "\u2581figure": 5381,
  "\u2581lying": 5382,
  "\u2581responded": 5383,
  "\u2581significant": 5384,
  "\u2581succeed": 5385,
  "\u2581\u10e8\u10e2\u10d0\u10e2\u10d4\u10d1\u10e8\u10d8": 5386,
  "\u2581European": 5387,
  "\u2581Imagine": 5388,
  "\u2581Up": 5389,
  "12": 5390,
  "ear": 5391,
  "\u10e2\u10dd\u10dc": 5392,
  "\u2581advance": 5393,
  "\u2581\u10d1\u10d0\u10d5\u10e8\u10d5\u10d4\u10d1\u10d8\u10e1": 5394,
  "\u2581\u10d2\u10d0\u10dc\u10d0\u10d7\u10da\u10d4\u10d1\u10d0": 5395,
  "\u2581\u10db\u10d0\u10db\u10d0\u10db": 5396,
  "\u2581\u10e1\u10e0\u10e3\u10da\u10d0\u10d3": 5397,
  "\u2581\u10ef\u10d8": 5398,
  "\u10dd\u10db": 5399,
  "\u2581Answer": 5400,
  "\u2581aside": 5401,
  "\u2581injustice": 5402,
  "\u2581mature": 5403,
  "\u2581none": 5404,
  "\u2581square": 5405,
  "\u2581\u10d1\u10d0\u10d1\u10d8\u10da\u10dd\u10dc": 5406,
  "\u2581\u10d5\u10d8\u10e7\u10d0\u10d5\u10d8\u10d7": 5407,
  "\u2581\u10db\u10d0\u10e0\u10ea\u10ee\u10d4\u10dc\u10d0": 5408,
  "\u2581\u10db\u10d8\u10d5\u10d1\u10d0\u10eb\u10dd\u10d7": 5409,
  "ld": 5410,
  "so": 5411,
  "\u10da\u10dd\u10d2": 5412,
  "\u10e1\u10ec\u10d0\u10d5\u10da\u10d0": 5413,
  "\u258146": 5414,
  "\u2581Po": 5415,
  "\u2581Spanish": 5416,
  "\u2581Th": 5417,
  "\u2581arise": 5418,
  "\u2581dealing": 5419,
  "\u2581organized": 5420,
  "\u2581quit": 5421,
  "\u2581struggle": 5422,
  "\u2581\u10e0\u10de\u10d5": 5423,
  "\u2581\u10e1\u10d8\u10d0\u10db\u10dd\u10d5\u10dc\u10d4\u10d1\u10d8\u10d7": 5424,
  "\u2581\u10e3\u10db\u10d4\u10e2\u10d4\u10e1": 5425,
  "\u2581\u10e7\u10d5\u10d4\u10da\u10d0\u10e4\u10e0\u10d8\u10e1": 5426,
  "\u2581\u10eb\u10d0\u10da\u10d8\u10d7": 5427,
  "ome": 5428,
  "\u10df\u10dc\u10d0": 5429,
  "\u2581Isaac": 5430,
  "\u2581widow": 5431,
  "\u2581\u10e3\u10e4\u10e0\u10dd\u10e1\u10d8": 5432,
  "ley": 5433,
  "\u10d5\u10d8\u10d7\u10d0\u10e0": 5434,
  "\u10d6\u10d0\u10db": 5435,
  "\u10ee\u10d5\u10e0\u10d4": 5436,
  "\u2581indicates": 5437,
  "\u2581smoke": 5438,
  "\u2581\u10d8\u10ea\u10d8\u10d7": 5439,
  "\u2581\u10d9\u10d4\u10e0\u10de": 5440,
  "\u2581\u10db\u10d0\u10db\u10d0\u10d9\u10d0\u10ea\u10d4\u10d1\u10d8": 5441,
  "\u10db\u10ec": 5442,
  "\u10e2\u10d7": 5443,
  "\u2581London": 5444,
  "\u2581Parents": 5445,
  "\u2581\u10d0\u10d3\u10d2\u10d8\u10da\u10dd\u10d1\u10e0\u10d8\u10d5": 5446,
  "\u2581\u10d3\u10d0\u10d5\u10d8\u10d7\u10e1": 5447,
  "\u2581\u10d8\u10e0": 5448,
  "\u2581\u10db\u10d0\u10d2": 5449,
  "\u2581\u10dc\u10d4\u10d1\u10d0\u10e1": 5450,
  "\u2581\u10e1\u10d8\u10e2\u10e7\u10d5\u10d8\u10d7": 5451,
  "\u2581\u10ec\u10d4\u10e0\u10d8\u10da\u10d4\u10d1\u10d8": 5452,
  "TH": 5453,
  "port": 5454,
  "\u10db\u10e7\u10d0\u10e0": 5455,
  "\u2581dress": 5456,
  "\u2581engage": 5457,
  "\u2581official": 5458,
  "\u2581praying": 5459,
  "\u2581surprise": 5460,
  "\u2581\u10db\u10d8\u10d4\u10ea\u10d0": 5461,
  "\u10db\u10dd\u10d7": 5462,
  "\u2581closely": 5463,
  "\u2581cry": 5464,
  "\u2581reveals": 5465,
  "\u2581win": 5466,
  "\u2581\u10d1\u10f2\u10da": 5467,
  "\u2581\u10d2\u10d6\u10d4\u10d1\u10d8": 5468,
  "\u2581\u10e1\u10d0\u10db\u10dd\u10d7\u10ee\u10d4\u10e8\u10d8": 5469,
  "\u2581\u10e5\u10d0\u10da": 5470,
  "\u10d7\u10d0\u10dc\u10ee\u10db\u10d4\u10d1": 5471,
  "\u258123]": 5472,
  "\u2581fruitage": 5473,
  "\u2581historian": 5474,
  "\u2581weak": 5475,
  "\u2581\u10d2\u10d4\u10db": 5476,
  "\u2581\u10d2\u10d7\u10d4\u10ec": 5477,
  "\u2581\u10dd\u10de\u10d0": 5478,
  "\u2581\u10e2\u10e0\u10d0": 5479,
  "\u2581\u10e7\u10e3\u10e0\u10d0\u10d3\u10e6\u10d4\u10d1\u10d8\u10d7": 5480,
  "\u2581aspects": 5481,
  "\u2581severe": 5482,
  "\u2581song": 5483,
  "\u2581throw": 5484,
  "\u2581\u10d0\u10e8\u10d9\u10d0\u10e0\u10d0\u10d3": 5485,
  "\u2581\u10df\u10da\u10e1\u10e5\u10d0": 5486,
  "\u2581\u10e0\u10f2\u10d3\u10d0\u10d2\u10d0": 5487,
  "All": 5488,
  "\u2581mention": 5489,
  "\u2581trial": 5490,
  "\u2581\u10d0\u10d3\u10d0\u10db\u10d8\u10e1": 5491,
  "\u2581\u10d2\u10d0\u10ee\u10d3\u10dc\u10d4\u10dc": 5492,
  "\u2581\u10f3": 5493,
  "70": 5494,
  "\u2581drug": 5495,
  "\u2581li": 5496,
  "\u2581wouldn": 5497,
  "\u2581\u10db\u10d6\u10d4": 5498,
  "\u2581\u10db\u10dd\u10e1\u10d4": 5499,
  "\u2581\u10de\u10d4\u10e0": 5500,
  "No": 5501,
  "\u10ec\u10d8\u10dc\u10d0\u10e1\u10ec\u10d0\u10e0\u10db\u10d4\u10e2\u10e7\u10d5\u10d4\u10da\u10d0": 5502,
  "\u2581darkness": 5503,
  "\u2581\u10e0\u10d0\u10e8\u10d8": 5504,
  "\u10d1\u10d0\u10dc": 5505,
  "\u10d1\u10d5\u10de": 5506,
  "\u10dc\u10d0\u10ec\u10d8\u10da": 5507,
  "\u2581Canada": 5508,
  "\u2581chief": 5509,
  "\u2581neighbors": 5510,
  "\u2581price": 5511,
  "\u2581project": 5512,
  "\u2581\u10d0\u10e6\u10d5": 5513,
  "\u2581\u10d2\u10dd": 5514,
  "\u2581\u10d9\u10e7\u10db": 5515,
  "\u2581\u10db\u10d7\u10d0": 5516,
  "\u2581\u10e8\u10d7\u10d0\u10d1\u10d4\u10ed\u10d3\u10d8\u10da\u10d4\u10d1\u10d0": 5517,
  "\u2581running": 5518,
  "\u2581\u10d2\u10d0\u10d3\u10d0\u10d5\u10ec\u10e7\u10d5\u10d8\u10e2\u10d4": 5519,
  "\u2581\u10e1\u10d0\u10e8\u10d8\u10dc\u10d4\u10da\u10d8": 5520,
  "ify": 5521,
  "\u10da\u10d0\u10dc\u10d3\u10d8": 5522,
  "\u2581\u10d2\u10d0\u10dc\u10e1\u10d0\u10d9\u10e3\u10d7\u10e0\u10d4\u10d1\u10e3\u10da": 5523,
  "\u2581\u10d8\u10e3\u10d3\u10d0\u10e1": 5524,
  "\u2581\u10ee\u10d0\u10da\u10ee\u10d8\u10e1\u10d7\u10d5\u10d8\u10e1": 5525,
  "si": 5526,
  "uck": 5527,
  "\u10d5\u10d0\u10da\u10d4\u10d1": 5528,
  "\u25811997": 5529,
  "\u2581depression": 5530,
  "\u2581heed": 5531,
  "\u2581released": 5532,
  "\u2581waters": 5533,
  "\u2581\u10d2\u10d0\u10e0\u10d4": 5534,
  "\u2581\u10db\u10d7\u10d0\u10d5\u10e0\u10dd\u10d1\u10d0": 5535,
  "\u2581\u10e8\u10d4\u10d8\u10ea\u10d5\u10d0\u10da\u10d0": 5536,
  "\u2581East": 5537,
  "\u2581Hav": 5538,
  "\u2581beneficial": 5539,
  "\u2581drive": 5540,
  "\u2581receiving": 5541,
  "\u2581\u10d0\u10e0\u10d0\u10d4\u10e0\u10d7\u10ee\u10d4\u10da": 5542,
  "\u2581\u10d8\u10dc\u10e2\u10d4\u10e0\u10dc\u10d4\u10e2": 5543,
  "\u2581\u10d8\u10e1\u10d4\u10d7\u10d8\u10d5\u10d4": 5544,
  "\u2581\u10db\u10d8\u10da\u10d8\u10dd\u10dc": 5545,
  "\u2581\u10de\u10e3\u10e0\u10d8": 5546,
  "\u10d1\u10dd\u10d3\u10d8": 5547,
  "\u10d2\u10f2\u10da": 5548,
  "\u10d8\u10ee\u10d8\u10da\u10d4\u10d7": 5549,
  "\u2581glad": 5550,
  "\u2581pictures": 5551,
  "\u2581scientific": 5552,
  "\u2581\u10d0\u10db\u10d1\u10dd\u10d1\u10d3\u10d0": 5553,
  "\u2581\u10d2\u10d0\u10d3\u10d0\u10ec\u10e7\u10d5\u10d8\u10e2\u10d0": 5554,
  "\u2581\u10d4\u10e5\u10d5\u10e1": 5555,
  "\u2581\u10d8\u10d7\u10ee\u10dd\u10d5": 5556,
  "\u2581\u10db\u10dd\u10db\u10d6\u10d0\u10d3\u10d4\u10d1\u10d0": 5557,
  "kin": 5558,
  "\u10d0\u10dc\u10e1": 5559,
  "\u10d8\u10e1\u10d9\u10d4\u10dc": 5560,
  "\u2581Biblical": 5561,
  "\u2581forest": 5562,
  "\u2581impossible": 5563,
  "\u2581\u10d8\u10db\u10de\u10dd\u10e0\u10e2\u10d8": 5564,
  "\u2581\u10de\u10d8\u10dd\u10dc\u10d4\u10e0": 5565,
  "\u2581North": 5566,
  "\u2581bodies": 5567,
  "\u2581damage": 5568,
  "\u2581tax": 5569,
  "\u2581\u10db\u10dd\u10e7\u10d5\u10d0\u10dc\u10d8\u10da\u10d8": 5570,
  "\u2581\u10e1\u10d0\u10d9\u10d8\u10d7\u10ee\u10d4\u10d1\u10d8": 5571,
  "\u2581apart": 5572,
  "\u2581facts": 5573,
  "\u2581immorality": 5574,
  "\u2581\u10d7\u10d5\u10d0\u10da\u10d8\u10d7": 5575,
  "\u2581\u10df\u10e7\u10e6\u10f2": 5576,
  "\u2581\u10eb\u10d0\u10da": 5577,
  "put": 5578,
  "\u2581120": 5579,
  "\u258153": 5580,
  "\u2581gets": 5581,
  "\u2581\u10d2\u10d5\u10e1\u10e3\u10e0\u10e1": 5582,
  "\u2581\u10d7\u10d0\u10d5\u10d3\u10d0\u10de\u10d8\u10e0\u10d5\u10d4\u10da\u10d0\u10d3": 5583,
  "\u2581\u10e7\u10d5\u10d4\u10da\u10d2\u10d0\u10dc": 5584,
  "\u2581commandments": 5585,
  "\u2581lasting": 5586,
  "\u2581peaceful": 5587,
  "\u2581\u10db\u10d5\u10dc\u10d5": 5588,
  "\u2581\u10e3\u10d9\u10d0\u10dc\u10d0\u10e1\u10d9\u10dc\u10d4\u10da": 5589,
  "set": 5590,
  "\u2581Christmas": 5591,
  "\u2581Which": 5592,
  "\u2581post": 5593,
  "\u2581\u10d8\u10ea": 5594,
  "\u2581\u10db\u10dd\u10d2\u10d5\u10d8\u10ec\u10dd\u10d3\u10d4\u10d1\u10e1": 5595,
  "\u2581\u10e0\u10dd\u10da\u10d8": 5596,
  "\u2581\u10e1\u10d8\u10d9\u10d5\u10d3\u10d8\u10da\u10e1": 5597,
  "\u2581\u10e1\u10d8\u10db\u10d3\u10d8\u10d3\u10e0\u10d4": 5598,
  "\u2581\u10e4\u10d8\u10e5\u10e0\u10dd\u10d1\u10d4\u10dc": 5599,
  "\u10d8\u10dc\u10dd\u10e1": 5600,
  "\u2581\u10d2\u10e3\u10da\u10db\u10dd\u10d3\u10d2\u10d8\u10dc\u10d4\u10d3": 5601,
  "\u2581\u10d8\u10db\u10d4\u10d3\u10e1": 5602,
  "\u2581\u10db\u10dd\u10d9\u10d5\u10d3\u10d0": 5603,
  "\u2581\u10e0\u10ec\u10db\u10d4\u10dc\u10d8\u10d7": 5604,
  "\u2581\u10ec\u10e7\u10d5\u10d8\u10da\u10d8": 5605,
  "tory": 5606,
  "ue": 5607,
  "\u2581carrying": 5608,
  "\u2581\u10d3\u10d0\u10d0\u10d5\u10d0\u10d3\u10d4\u10d1\u10d0": 5609,
  "\u2581\u10da\u10dd\u10ea\u10d5\u10d0\u10e8\u10d8": 5610,
  "\u2581\u10e3\u10ee\u10e3\u10ea\u10d4\u10e1\u10d4\u10d1\u10e1": 5611,
  "dic": 5612,
  "ea": 5613,
  "mark": 5614,
  "\u10dc\u10f2\u10d2": 5615,
  "\u2581Qu": 5616,
  "\u2581declare": 5617,
  "\u2581j": 5618,
  "\u2581joyful": 5619,
  "\u2581rec": 5620,
  "\u2581\u10d2\u10d0\u10e5\u10d5\u10e1": 5621,
  "\u2581\u10d4\u10ec\u10dd\u10d3\u10d4\u10d1\u10d0": 5622,
  "\u2581\u10e1\u10d8\u10e1\u10ee\u10da": 5623,
  "\u2581\u10e1\u10d8\u10e1\u10ee\u10da\u10d8": 5624,
  "\u2581\u10e6\u10db\u10d4\u10e0\u10d7\u10d8\u10d0": 5625,
  "\u2581\u10eb\u10d0\u10da\u10d0\u10d3\u10dd\u10d1\u10d0": 5626,
  "\u10d8\u10d7\u10d0": 5627,
  "\u10e0\u10de\u10f2": 5628,
  "\u258129.": 5629,
  "\u25817]": 5630,
  "\u2581daughters": 5631,
  "\u2581expressions": 5632,
  "\u2581likewise": 5633,
  "\u2581mountains": 5634,
  "\u2581numbers": 5635,
  "\u2581\u10d1\u10de\u10d0\u10e0": 5636,
  "\u2581\u10d2\u10d0\u10e7\u10dd\u10e4\u10d8\u10da\u10d8": 5637,
  "\u2581\u10d3\u10d0\u10e0\u10e9\u10d0": 5638,
  "\u2581\u10db\u10e8\u10dd\u10d1\u10da\u10d4\u10d1\u10db\u10d0": 5639,
  "\u2581\u10db\u10ee\u10d0\u10e0\u10d3\u10d0\u10ed\u10d4\u10e0\u10d0": 5640,
  "\u2581\u10ee\u10d4\u10da\u10db\u10eb\u10e6\u10d5\u10d0\u10dc\u10d4\u10da\u10dd\u10d1\u10d0\u10e1": 5641,
  "\u10e0\u10dd\u10d1": 5642,
  "\u2581150": 5643,
  "\u2581Spain": 5644,
  "\u2581sinful": 5645,
  "\u2581task": 5646,
  "\u2581\u10d8\u10ee": 5647,
  "pre": 5648,
  "\u10da\u10e3\u10e0": 5649,
  "\u10dc\u10d8\u10e8\u10d5\u10dc": 5650,
  "\u10dd\u10e1\u10d8": 5651,
  "\u10e4\u10d8\u10da": 5652,
  "\u2581Sorry": 5653,
  "\u2581im": 5654,
  "\u2581pretty": 5655,
  "\u2581writes": 5656,
  "\u2581\u10d3\u10d0\u10d2\u10d5\u10d0": 5657,
  "\u2581\u10d9\u10d0\u10f1\u10d2\u10d0": 5658,
  "\u2581\u10d9\u10d8\u10d7\u10ee\u10d5\u10d0\u10e1": 5659,
  "\u2581\u10de\u10d0\u10dc": 5660,
  "\u2581\u10de\u10d0\u10e2": 5661,
  "shi": 5662,
  "\u10da\u10d0\u10dc": 5663,
  "\u10dc\u10e1\u10d2\u10d0": 5664,
  "\u10e9\u10d4\u10db": 5665,
  "\u10ec\u10db\u10d8\u10dc\u10d3\u10d0": 5666,
  "\u2581outstanding": 5667,
  "\u2581prophetic": 5668,
  "\u2581\u10d0\u10d1\u10e0\u10d0\u10d0\u10db\u10d8\u10e1": 5669,
  "\u2581\u10d3\u10d4\u10d3\u10d0\u10e1": 5670,
  "Be": 5671,
  "\u10d5\u10e0\u10d8": 5672,
  "\u10d7\u10ec\u10e0\u10d0": 5673,
  "\u10da\u10f2\u10e0\u10f2": 5674,
  "\u10dd\u10da\u10d8": 5675,
  "\u10df\u10e7\u10dc": 5676,
  "\u2581October": 5677,
  "\u2581dog": 5678,
  "\u2581reference": 5679,
  "\u2581\u10db\u10d0\u10da\u10d4\u10d5\u10d4": 5680,
  "\u2581\u10e1\u10d0\u10e5\u10db\u10d4\u10d4\u10d1\u10e1": 5681,
  "\u2581View": 5682,
  "\u2581anymore": 5683,
  "\u2581speaks": 5684,
  "\u2581\u10d9\u10d0\u10d6\u10d7": 5685,
  "\u2581\u10db\u10dc\u10f2\u10d3\u10e1": 5686,
  "\u2581\u10dc\u10d7\u10d9\u10f2\u10d3\u10d0": 5687,
  "\u2581\u10e6\u10e0\u10db\u10d0": 5688,
  "old": 5689,
  "\u2581Tell": 5690,
  "\u2581inhabitants": 5691,
  "\u2581recognized": 5692,
  "\u2581\u10d0\u10e6\u10d7\u10e5\u10db\u10d0": 5693,
  "\u2581\u10d3\u10d0\u10d5\u10e4\u10d8\u10e5\u10e0\u10d3\u10d4\u10d7": 5694,
  "\u2581\u10d9\u10dd\u10db": 5695,
  "\u2581\u10d9\u10dd\u10dc\u10d2\u10e0\u10d4\u10e1\u10d6\u10d4": 5696,
  "\u2581\u10db\u10d4\u10e3\u10e6\u10da\u10d8\u10e1": 5697,
  "\u2581\u10e1\u10d8\u10db\u10d0\u10e0\u10d7\u10da\u10d8\u10e1": 5698,
  "\u2581\u10e5\u10e0\u10d8\u10e1\u10e2\u10d8\u10d0\u10dc\u10e1": 5699,
  "\u2581\u10ec\u10d4\u10e0\u10e2\u10d8\u10da\u10d8": 5700,
  "\u2581\u10f2\u10df\u10e0\u10d0\u10d2\u10d7": 5701,
  "\u10d1\u10d0\u10e0\u10d0": 5702,
  "\u2581Mu": 5703,
  "\u2581construction": 5704,
  "\u2581failure": 5705,
  "\u2581invite": 5706,
  "\u2581upright": 5707,
  "\u2581\u10d2\u10d0\u10d5\u10d8\u10d2\u10dd\u10d7": 5708,
  "\u2581\u10d3\u10f2\u10e0\u10f2\u10d2": 5709,
  "\u2581\u10d5\u10e4\u10d8\u10e5\u10e0\u10dd\u10d1": 5710,
  "\u2581\u10e0\u10e9\u10d4\u10d5\u10d8\u10e1": 5711,
  "\u2581\u10e1\u10d0\u10db\u10e3\u10e8\u10d0\u10dd\u10e1": 5712,
  "\u2581\u10e5\u10d0\u10e0": 5713,
  "(": 5714,
  "Z": 5715,
  "\u258125:": 5716,
  "\u2581Ni": 5717,
  "\u2581quick": 5718,
  "\u2581\u10dd\u10da\u10d0\u10dc": 5719,
  "\u2581\u10e1\u10d0\u10e0\u10d0": 5720,
  "\u2581\u10e1\u10ee\u10d5\u10d4\u10d1\u10d7\u10d0\u10dc": 5721,
  "\u2581\u10ec\u10d0\u10e0\u10e1\u10e3\u10da\u10e8\u10d8": 5722,
  "\u10db\u10d4\u10dd\u10e0\u10d4": 5723,
  "\u2581assure": 5724,
  "\u2581average": 5725,
  "\u2581remove": 5726,
  "\u2581united": 5727,
  "\u2581\u10d6\u10e3\u10e1\u10e2\u10d8": 5728,
  "\u2581\u10d7\u10df": 5729,
  "\u2581\u10de\u10d8\u10e0\u10d3\u10d0\u10de\u10d8\u10e0": 5730,
  "\u10e0\u10e3\u10e1": 5731,
  "\u10e0\u10e7\u10de": 5732,
  "\u2581Regard": 5733,
  "\u2581SONGS": 5734,
  "\u2581moves": 5735,
  "\u2581\u10db\u10d3\u10d2\u10dd\u10db\u10d0\u10e0\u10d4\u10dd\u10d1\u10d0\u10e1": 5736,
  "\u2581\u10f0\u10e5\u10dd\u10dc\u10d3\u10d4\u10e1": 5737,
  "*": 5738,
  "40": 5739,
  "\u0160": 5740,
  "\u10d4\u10d1\u10d8\u10e1\u10d0\u10e1": 5741,
  "\u10dc\u10d7\u10d5": 5742,
  "\u258124,": 5743,
  "\u2581Whatever": 5744,
  "\u2581miss": 5745,
  "\u2581wars": 5746,
  "\u2581\u10d0\u10e0\u10d0\u10e4\u10d4\u10e0\u10e1": 5747,
  "\u2581\u10d4\u10e1\u10db\u10dd\u10d3\u10d0": 5748,
  "\u2581\u10da\u10d8\u10e2\u10d4\u10e0\u10d0\u10e2\u10e3\u10e0\u10d0": 5749,
  "usa": 5750,
  "\u2581University": 5751,
  "\u2581billion": 5752,
  "\u2581games": 5753,
  "\u2581habits": 5754,
  "\u2581\u10d9\u10d4\u10d7\u10d4\u10d1\u10d0": 5755,
  "\u2581\u10e3\u10e7\u10d5\u10d0\u10e0\u10d3\u10d0": 5756,
  "\u2581\u10e9\u10d4\u10db\u10db\u10d0": 5757,
  "\u2581\u10ea\u10dd\u10da\u10e1": 5758,
  "\u10d4\u10d1\u10d0\u10db\u10d3\u10d4": 5759,
  "\u10db\u10e3\u10dc\u10d4": 5760,
  "\u10e2\u10e7\u10d5\u10d4": 5761,
  "\u258128.": 5762,
  "\u2581\u10d0\u10e0\u10e9\u10d4\u10d5\u10d0\u10dc\u10d8": 5763,
  "\u2581\u10d0\u10e1\u10e0\u10e3\u10da\u10d4\u10d1\u10e1": 5764,
  "\u2581\u10d1\u10d0\u10da": 5765,
  "\u2581\u10e1\u10d0\u10db\u10ee\u10d4\u10d3\u10e0\u10dd": 5766,
  "\u2581\u10ea\u10d8\u10ee\u10d4\u10e8\u10d8": 5767,
  "\u2581\u10f0\u10d8": 5768,
  "New": 5769,
  "work": 5770,
  "\u10e3\u10e8": 5771,
  "\u25812002": 5772,
  "\u2581January": 5773,
  "\u2581March": 5774,
  "\u2581concluded": 5775,
  "\u2581highly": 5776,
  "\u2581indefinite": 5777,
  "\u2581lo": 5778,
  "\u2581silver": 5779,
  "\u2581\u10d1\u10dd\u10e0\u10dd\u10e2\u10d4\u10d1\u10d0": 5780,
  "\u2581\u10d3\u10d8\u10d3\u10d4\u10d1\u10d0": 5781,
  "\u2581\u10e0\u10d4\u10d0\u10da\u10e3\u10e0\u10d8": 5782,
  "\u2581\u10e1\u10e3\u10e0\u10d7": 5783,
  "\u2581corrupt": 5784,
  "\u2581victims": 5785,
  "\u2581\u10db\u10d8\u10ec\u10d0\u10d6\u10d4": 5786,
  "\u2581\u10e5\u10e0\u10d8\u10e1\u10e2\u10d8\u10d0\u10dc\u10d4\u10d1\u10d8\u10e1": 5787,
  "\u10d5\u10d0\u10dc": 5788,
  "\u10e7\u10d0\u10e0\u10d0": 5789,
  "\u2581Readers": 5790,
  "\u2581Russia": 5791,
  "\u2581broken": 5792,
  "\u2581paid": 5793,
  "\u2581preced": 5794,
  "\u2581rep": 5795,
  "\u2581\u10d2\u10d5\u10ed\u10d8\u10e0\u10d3\u10d4\u10d1\u10d0": 5796,
  "\u2581\u10db\u10d4\u10e2\u10e7\u10d5\u10d4\u10da\u10d4\u10d1\u10e1": 5797,
  "ade": 5798,
  "\u10d0\u10dc\u10e2\u10d8": 5799,
  "\u2581Select": 5800,
  "\u2581bearing": 5801,
  "\u2581bless": 5802,
  "\u2581possess": 5803,
  "\u2581\u10d2\u10d0\u10d2\u10d6\u10d0\u10d5\u10dc\u10d0": 5804,
  "\u2581\u10d3\u10d0\u10db\u10dc\u10d0\u10e8\u10d0\u10d5\u10d4": 5805,
  "\u2581\u10db\u10d4\u10d7\u10dd\u10d3\u10d8": 5806,
  "\u2581\u10db\u10f2\u10de\u10d0": 5807,
  "\u10dc\u10d7\u10d5\u10e0\u10f2": 5808,
  "\u2581July": 5809,
  "\u2581caught": 5810,
  "\u2581delivered": 5811,
  "\u2581fo": 5812,
  "\u2581identify": 5813,
  "\u2581zealous": 5814,
  "\u2581\u10d7\u10f1\u10d3\u10da\u10d5\u10d6\u10d4\u10d0": 5815,
  "\u2581\u10d9\u10d0\u10e0\u10d2\u10d8\u10d0": 5816,
  "\u2581\u10db\u10e1\u10d0\u10ee\u10e3\u10e0": 5817,
  "\u2581\u10df\u10d2\u10d5\u10e0": 5818,
  "ack": 5819,
  "\u10d8\u10d6\u10db\u10d8": 5820,
  "\u10da\u10e8\u10d8": 5821,
  "\u2581access": 5822,
  "\u2581cells": 5823,
  "\u2581huge": 5824,
  "\u2581opportunities": 5825,
  "\u2581street": 5826,
  "\u2581uh": 5827,
  "\u2581\u10d0\u10e1\u10d0\u10d9\u10d8\u10e1": 5828,
  "\u2581\u10d2\u10e3\u10da\u10ec\u10e0\u10e4\u10d4\u10da\u10d8": 5829,
  "\u2581\u10de\u10d8\u10e0\u10d8": 5830,
  "\u2581\u10ec\u10d4\u10d5\u10e0\u10d4\u10d1\u10e1": 5831,
  "ef": 5832,
  "\u10d3\u10d4\u10d1\u10d8\u10e1": 5833,
  "\u10e1\u10e3\u10e1\u10e2": 5834,
  "\u2581Times": 5835,
  "\u2581belong": 5836,
  "\u2581minute": 5837,
  "\u2581murder": 5838,
  "\u2581sees": 5839,
  "\u2581worshipers": 5840,
  "\u2581\u10db\u10d4\u10e2\u10d8\u10d0": 5841,
  "\u2581\u10e1\u10d0\u10db\u10e7\u10d0\u10e0\u10dd": 5842,
  "\u2581\u10e1\u10ee\u10d5\u10d4\u10d1\u10d8\u10e1\u10d7\u10d5\u10d8\u10e1": 5843,
  "\u2581\u10eb\u10d0\u10da\u10d0\u10e3\u10e4\u10da\u10d4\u10d1\u10d0": 5844,
  "cor": 5845,
  "\u10df\u10e0\u10d0\u10dc": 5846,
  "\u2581State": 5847,
  "\u2581culture": 5848,
  "\u2581\u10d9\u10da\u10d0\u10e1": 5849,
  "\u2581\u10de\u10d4\u10e2\u10e0\u10d4\u10db": 5850,
  "\u2581\u10e0\u10d0\u10db\u10d0\u10ea": 5851,
  "\u2581\u10e4\u10d0\u10e5\u10e2": 5852,
  "if": 5853,
  "light": 5854,
  "nic": 5855,
  "\u2581\u10d0\u10d3\u10d0\u10db\u10d8\u10d0\u10dc\u10db\u10d0": 5856,
  "\u2581\u10d4\u10d5\u10d0\u10e1": 5857,
  "\u2581\u10db\u10dd\u10ec\u10db\u10d4\u10d4\u10d1\u10db\u10d0": 5858,
  "\u2581\u10e0\u10d4\u10df\u10d8\u10db\u10d8": 5859,
  "\u2581\u10eb\u10e6\u10d5\u10d4\u10dc\u10d8": 5860,
  "\u10d1\u10e3\u10da\u10d8": 5861,
  "\u10d8\u10dc\u10d4": 5862,
  "\u2581>": 5863,
  "\u2581Sarah": 5864,
  "\u2581base": 5865,
  "\u2581beloved": 5866,
  "\u2581star": 5867,
  "\u2581\u10d0\u10ee\u10d0\u10da\u10d2\u10d0\u10d6\u10e0\u10d3\u10d4\u10d1\u10d8": 5868,
  "\u2581\u10dd\u10e5\u10e0\u10dd\u10e1": 5869,
  "\u2581\u10e1\u10d0\u10e4\u10e0\u10d7\u10ee\u10d4": 5870,
  "\u2581\u10e5\u10dd": 5871,
  "\u2581\u10eb\u10db\u10d0\u10e1": 5872,
  "\u2581\u10ee\u10d4\u10da\u10db\u10eb\u10e6\u10d5\u10d0\u10dc\u10d4\u10da\u10d8": 5873,
  "\u10e0\u10d7\u10e3\u10da\u10d8": 5874,
  "\u2581Mom": 5875,
  "\u2581couples": 5876,
  "\u2581directed": 5877,
  "\u2581refer": 5878,
  "\u2581slaves": 5879,
  "\u2581standard": 5880,
  "\u2581walked": 5881,
  "\u2581wear": 5882,
  "\u2581\u10e9\u10d0\u10db": 5883,
  "25": 5884,
  "\u10d9\u10d7\u10e0\u10d5": 5885,
  "\u10ea\u10dd\u10ea\u10ee\u10da\u10d4\u10d1": 5886,
  "\u2581Way": 5887,
  "\u2581amazing": 5888,
  "\u2581description": 5889,
  "\u2581hatred": 5890,
  "\u2581leaves": 5891,
  "\u2581thanks": 5892,
  "\u2581\u10d0\u10d7\u10d0\u10e1": 5893,
  "\u2581\u10df\u10d0\u10d9\u10d0\u10db": 5894,
  "\u2581\u10df\u10d7\u10dc": 5895,
  "\u2581\u10e0\u10d4\u10d0\u10e5\u10ea\u10d8\u10d0": 5896,
  "\u2581\u10e1\u10d9\u10dd\u10da\u10d8\u10e1": 5897,
  "\u2581\u10e3\u10e4\u10da\u10d4\u10d1\u10d4\u10d1\u10d8": 5898,
  "ell": 5899,
  "\u10e9\u10d4\u10db\u10d8": 5900,
  "\u2581Israelite": 5901,
  "\u2581balanced": 5902,
  "\u2581ca": 5903,
  "\u2581constantly": 5904,
  "\u2581pointed": 5905,
  "\u2581soldiers": 5906,
  "\u2581\u10d8\u10d0\u10dc": 5907,
  "\u2581\u10e1\u10d0\u10e3\u10d9\u10e3\u10dc\u10d4\u10d4\u10d1\u10d8\u10e1": 5908,
  "\u2581\u10e2\u10e7": 5909,
  "har": 5910,
  "tur": 5911,
  "\u10d3\u10d4\u10d1\u10dd\u10d3\u10d8": 5912,
  "\u10dd\u10da\u10dd\u10d2\u10d8": 5913,
  "\u2581directly": 5914,
  "\u2581grown": 5915,
  "\u2581pagan": 5916,
  "\u2581proud": 5917,
  "\u2581providing": 5918,
  "\u2581variety": 5919,
  "\u2581\u10db\u10dd\u10db\u10d0\u10d5\u10d0\u10da": 5920,
  "\u2581\u10de\u10e0\u10d0\u10e5\u10e2\u10d8\u10d9\u10e3\u10da\u10d8": 5921,
  "\u2581\u10e1\u10d0\u10e2\u10d0\u10dc\u10d0\u10e1": 5922,
  "\u2581\u10ee\u10d8\u10da": 5923,
  "van": 5924,
  "\u10d8\u10d4\u10f0\u10dd\u10d5\u10d0": 5925,
  "\u2581Da": 5926,
  "\u2581angle": 5927,
  "\u2581entertainment": 5928,
  "\u2581rejected": 5929,
  "\u2581secure": 5930,
  "\u2581skills": 5931,
  "\u2581\u10d6\u10e0\u10e3\u10dc\u10d5\u10d0": 5932,
  "\u2581\u10e1\u10ec\u10d0\u10d5\u10da\u10d4\u10d1\u10d8\u10e1": 5933,
  "\u10d4\u10d2": 5934,
  "\u2581San": 5935,
  "\u2581gotta": 5936,
  "\u2581memory": 5937,
  "\u2581performed": 5938,
  "\u2581ran": 5939,
  "\u2581\u10d0\u10e0\u10e1\u10d4\u10d1\u10dd\u10d1\u10d3\u10d0": 5940,
  "\u2581\u10d3\u10d0\u10db\u10d8": 5941,
  "\u2581\u10db\u10dd\u10e0\u10e9\u10d8\u10da\u10d4\u10d1\u10d0": 5942,
  "\u2581\u10df\u10d0\u10d9\u10d0": 5943,
  "\u2581\u10e0\u10dd\u10da\u10e1": 5944,
  "\u2581\u10e1\u10d0\u10dc\u10d3\u10dd": 5945,
  "\u2581\u10e3\u10ec\u10dd\u10d3\u10d0": 5946,
  "\u2581\u10e8\u10d4\u10e1\u10d0\u10eb\u10da\u10d4\u10d1\u10da\u10dd\u10d1\u10d0\u10e1": 5947,
  "\u10e7\u10df": 5948,
  "\u2581Chile": 5949,
  "\u2581cares": 5950,
  "\u2581custom": 5951,
  "\u2581ended": 5952,
  "\u2581gathered": 5953,
  "\u2581useful": 5954,
  "\u2581\u10d1\u10d4\u10d5\u10e0\u10d0\u10d3": 5955,
  "\u2581\u10d3\u10d0\u10d8\u10ea\u10d0\u10d5": 5956,
  "\u2581\u10d7\u10d0\u10d5\u10d8\u10e1\u10e3\u10e4\u10da\u10d4\u10d1\u10d0": 5957,
  "\u2581\u10d7\u10d0\u10db\u10d0\u10e8\u10d8": 5958,
  "\u2581\u10db\u10f2\u10db\u10d5\u10dc\u10e0": 5959,
  "\u2581\u10e1\u10d8\u10e2\u10e3\u10d0\u10ea\u10d8\u10d0": 5960,
  "\u2581\u10ea\u10d5\u10da\u10d8\u10da\u10d4\u10d1\u10d0": 5961,
  "press": 5962,
  "\u2581Spirit": 5963,
  "\u2581keeps": 5964,
  "\u2581\u10db\u10e3\u10e8\u10d0": 5965,
  "\u2581\u10dc\u10d5\u10e5\u10e0\u10f2": 5966,
  "\u2581\u10e8\u10d0\u10d1\u10d0\u10d7": 5967,
  "atic": 5968,
  "low": 5969,
  "\u10ee\u10d8\u10da\u10d0": 5970,
  "\u10f2\u10d9": 5971,
  "\u258118,": 5972,
  "\u2581Hello": 5973,
  "\u2581Next": 5974,
  "\u2581channel": 5975,
  "\u2581copies": 5976,
  "\u2581couldn": 5977,
  "\u2581host": 5978,
  "\u2581throne": 5979,
  "\u2581\u10d2\u10d0\u10db\u10dd\u10d8\u10e7\u10d4\u10dc\u10d0": 5980,
  "\u2581\u10e5\u10e3": 5981,
  "\u2581\u10ea\u10d4": 5982,
  "\u10d4\u10da\u10d0\u10de\u10d0\u10e0\u10d0\u10d9\u10d4": 5983,
  "\u10d4\u10ec\u10e7\u10dd": 5984,
  "\u2581WHAT": 5985,
  "\u2581scholars": 5986,
  "\u2581\u10d3\u10e6\u10d4\u10e8\u10d8": 5987,
  "\u2581\u10dc\u10dd\u10d4": 5988,
  "\u2581\u10eb\u10d0\u10da\u10d8\u10e1\u10ee\u10db\u10d4\u10d5\u10d0": 5989,
  "\u2581Close": 5990,
  "\u2581churches": 5991,
  "\u2581lessons": 5992,
  "\u2581\u10d2\u10d0\u10db\u10e3\u10d3\u10db\u10d4\u10d1\u10d8\u10d7": 5993,
  "\u2581\u10e9\u10d4\u10db\u10d7\u10d0\u10dc": 5994,
  "\u2581Prov": 5995,
  "\u2581stars": 5996,
[...]
